{
  "version": "1.0",
  "truncation": null,
  "padding": null,
  "added_tokens": [
    {
      "id": 0,
      "content": "<|endoftext|>",
      "single_word": false,
      "lstrip": false,
      "rstrip": false,
      "normalized": false,
      "special": true
    },
    {
      "id": 1,
      "content": "<|im_start|>",
      "single_word": false,
      "lstrip": false,
      "rstrip": false,
      "normalized": false,
      "special": true
    },
    {
      "id": 2,
      "content": "<|im_end|>",
      "single_word": false,
      "lstrip": false,
      "rstrip": false,
      "normalized": false,
      "special": true
    },
    {
      "id": 3,
      "content": "<repo_name>",
      "single_word": false,
      "lstrip": false,
      "rstrip": false,
      "normalized": false,
      "special": true
    },
    {
      "id": 4,
      "content": "<reponame>",
      "single_word": false,
      "lstrip": false,
      "rstrip": false,
      "normalized": false,
      "special": true
    },
    {
      "id": 5,
      "content": "<file_sep>",
      "single_word": false,
      "lstrip": false,
      "rstrip": false,
      "normalized": false,
      "special": true
    },
    {
      "id": 6,
      "content": "<filename>",
      "single_word": false,
      "lstrip": false,
      "rstrip": false,
      "normalized": false,
      "special": true
    },
    {
      "id": 7,
      "content": "<gh_stars>",
      "single_word": false,
      "lstrip": false,
      "rstrip": false,
      "normalized": false,
      "special": true
    },
    {
      "id": 8,
      "content": "<issue_start>",
      "single_word": false,
      "lstrip": false,
      "rstrip": false,
      "normalized": false,
      "special": true
    },
    {
      "id": 9,
      "content": "<issue_comment>",
      "single_word": false,
      "lstrip": false,
      "rstrip": false,
      "normalized": false,
      "special": true
    },
    {
      "id": 10,
      "content": "<issue_closed>",
      "single_word": false,
      "lstrip": false,
      "rstrip": false,
      "normalized": false,
      "special": true
    },
    {
      "id": 11,
      "content": "<jupyter_start>",
      "single_word": false,
      "lstrip": false,
      "rstrip": false,
      "normalized": false,
      "special": true
    },
    {
      "id": 12,
      "content": "<jupyter_text>",
      "single_word": false,
      "lstrip": false,
      "rstrip": false,
      "normalized": false,
      "special": true
    },
    {
      "id": 13,
      "content": "<jupyter_code>",
      "single_word": false,
      "lstrip": false,
      "rstrip": false,
      "normalized": false,
      "special": true
    },
    {
      "id": 14,
      "content": "<jupyter_output>",
      "single_word": false,
      "lstrip": false,
      "rstrip": false,
      "normalized": false,
      "special": true
    },
    {
      "id": 15,
      "content": "<jupyter_script>",
      "single_word": false,
      "lstrip": false,
      "rstrip": false,
      "normalized": false,
      "special": true
    },
    {
      "id": 16,
      "content": "<empty_output>",
      "single_word": false,
      "lstrip": false,
      "rstrip": false,
      "normalized": false,
      "special": true
    }
  ],
  "normalizer": null,
  "pre_tokenizer": {
    "type": "ByteLevel",
    "add_prefix_space": false,
    "trim_offsets": true,
    "use_regex": true
  },
  "post_processor": {
    "type": "TemplateProcessing",
    "single": [
      {
        "Sequence": {
          "id": "A",
          "type_id": 0
        }
      }
    ],
    "pair": [
      {
        "Sequence": {
          "id": "A",
          "type_id": 0
        }
      },
      {
        "Sequence": {
          "id": "B",
          "type_id": 1
        }
      }
    ],
    "special_tokens": {}
  },
  "decoder": {
    "type": "ByteLevel",
    "add_prefix_space": true,
    "trim_offsets": true,
    "use_regex": true
  },
  "model": {
    "type": "BPE",
    "dropout": null,
    "unk_token": null,
    "continuing_subword_prefix": "",
    "end_of_word_suffix": "",
    "fuse_unk": false,
    "byte_fallback": false,
    "ignore_merges": false,
    "vocab": {
      "<|endoftext|>": 0,
      "<|im_start|>": 1,
      "<|im_end|>": 2,
      "<repo_name>": 3,
      "<reponame>": 4,
      "<file_sep>": 5,
      "<filename>": 6,
      "<gh_stars>": 7,
      "<issue_start>": 8,
      "<issue_comment>": 9,
      "<issue_closed>": 10,
      "<jupyter_start>": 11,
      "<jupyter_text>": 12,
      "<jupyter_code>": 13,
      "<jupyter_output>": 14,
      "<jupyter_script>": 15,
      "<empty_output>": 16,
      "!": 17,
      "\"": 18,
      "#": 19,
      "$": 20,
      "%": 21,
      "&": 22,
      "'": 23,
      "(": 24,
      ")": 25,
      "*": 26,
      "+": 27,
      ",": 28,
      "-": 29,
      ".": 30,
      "/": 31,
      "0": 32,
      "1": 33,
      "2": 34,
      "3": 35,
      "4": 36,
      "5": 37,
      "6": 38,
      "7": 39,
      "8": 40,
      "9": 41,
      ":": 42,
      ";": 43,
      "<": 44,
      "=": 45,
      ">": 46,
      "?": 47,
      "@": 48,
      "A": 49,
      "B": 50,
      "C": 51,
      "D": 52,
      "E": 53,
      "F": 54,
      "G": 55,
      "H": 56,
      "I": 57,
      "J": 58,
      "K": 59,
      "L": 60,
      "M": 61,
      "N": 62,
      "O": 63,
      "P": 64,
      "Q": 65,
      "R": 66,
      "S": 67,
      "T": 68,
      "U": 69,
      "V": 70,
      "W": 71,
      "X": 72,
      "Y": 73,
      "Z": 74,
      "[": 75,
      "\\": 76,
      "]": 77,
      "^": 78,
      "_": 79,
      "`": 80,
      "a": 81,
      "b": 82,
      "c": 83,
      "d": 84,
      "e": 85,
      "f": 86,
      "g": 87,
      "h": 88,
      "i": 89,
      "j": 90,
      "k": 91,
      "l": 92,
      "m": 93,
      "n": 94,
      "o": 95,
      "p": 96,
      "q": 97,
      "r": 98,
      "s": 99,
      "t": 100,
      "u": 101,
      "v": 102,
      "w": 103,
      "x": 104,
      "y": 105,
      "z": 106,
      "{": 107,
      "|": 108,
      "}": 109,
      "~": 110,
      "\u252c\u00ed": 111,
      "\u252c\u00f3": 112,
      "\u252c\u00fa": 113,
      "\u252c\u00f1": 114,
      "\u252c\u00d1": 115,
      "\u252c\u00aa": 116,
      "\u252c\u00ba": 117,
      "\u252c\u00bf": 118,
      "\u252c\u2310": 119,
      "\u252c\u00ac": 120,
      "\u252c\u00bd": 121,
      "\u252c\u00bc": 122,
      "\u252c\u00ab": 123,
      "\u252c\u00bb": 124,
      "\u252c\u2591": 125,
      "\u252c\u2592": 126,
      "\u252c\u2593": 127,
      "\u252c\u2502": 128,
      "\u252c\u2524": 129,
      "\u252c\u2561": 130,
      "\u252c\u2562": 131,
      "\u252c\u2556": 132,
      "\u252c\u2555": 133,
      "\u252c\u2563": 134,
      "\u252c\u2551": 135,
      "\u252c\u2557": 136,
      "\u252c\u255d": 137,
      "\u252c\u255c": 138,
      "\u252c\u255b": 139,
      "\u252c\u2510": 140,
      "\u251c\u00e9": 141,
      "\u251c\u00e2": 142,
      "\u251c\u00e4": 143,
      "\u251c\u00e0": 144,
      "\u251c\u00e5": 145,
      "\u251c\u00e7": 146,
      "\u251c\u00ea": 147,
      "\u251c\u00eb": 148,
      "\u251c\u00e8": 149,
      "\u251c\u00ef": 150,
      "\u251c\u00ee": 151,
      "\u251c\u00ec": 152,
      "\u251c\u00c4": 153,
      "\u251c\u00c5": 154,
      "\u251c\u00c9": 155,
      "\u251c\u00e6": 156,
      "\u251c\u00c6": 157,
      "\u251c\u00f4": 158,
      "\u251c\u00f6": 159,
      "\u251c\u00f2": 160,
      "\u251c\u00fb": 161,
      "\u251c\u00f9": 162,
      "\u251c\u00ff": 163,
      "\u251c\u00d6": 164,
      "\u251c\u00dc": 165,
      "\u251c\u00a2": 166,
      "\u251c\u00a3": 167,
      "\u251c\u00a5": 168,
      "\u251c\u20a7": 169,
      "\u251c\u0192": 170,
      "\u251c\u00e1": 171,
      "\u251c\u00ed": 172,
      "\u251c\u00f3": 173,
      "\u251c\u00fa": 174,
      "\u251c\u00f1": 175,
      "\u251c\u00d1": 176,
      "\u251c\u00aa": 177,
      "\u251c\u00ba": 178,
      "\u251c\u00bf": 179,
      "\u251c\u2310": 180,
      "\u251c\u00ac": 181,
      "\u251c\u00bd": 182,
      "\u251c\u00bc": 183,
      "\u251c\u00a1": 184,
      "\u251c\u00ab": 185,
      "\u251c\u00bb": 186,
      "\u251c\u2591": 187,
      "\u251c\u2502": 188,
      "\u251c\u2524": 189,
      "\u2500\u00c7": 190,
      "\u2500\u00fc": 191,
      "\u2500\u00e9": 192,
      "\u2500\u00e2": 193,
      "\u2500\u00e0": 194,
      "\u2500\u00e7": 195,
      "\u2500\u00ea": 196,
      "\u2500\u00eb": 197,
      "\u2500\u00e8": 198,
      "\u2500\u00ef": 199,
      "\u2500\u00ee": 200,
      "\u2500\u00ec": 201,
      "\u2500\u00c4": 202,
      "\u2500\u00c5": 203,
      "\u2500\u00c9": 204,
      "\u2500\u00e6": 205,
      "\u2500\u00c6": 206,
      "\u2500\u00f2": 207,
      "\u2500\u00f9": 208,
      "\u2500\u00ff": 209,
      "\u2500\u00d6": 210,
      "\u2500\u00dc": 211,
      "\u2500\u00a2": 212,
      "\u2500\u00a3": 213,
      "\u2500\u20a7": 214,
      "\u2500\u0192": 215,
      "\u2500\u00e1": 216,
      "\u2500\u00ed": 217,
      "\u2500\u00f3": 218,
      "\u2500\u00fa": 219,
      "\u2500\u00f1": 220,
      "\u2500\u00d1": 221,
      "\u2500\u00aa": 222,
      "\u2500\u00ba": 223,
      "\u2500\u00bf": 224,
      "\u2500\u2310": 225,
      "\u2500\u00ac": 226,
      "\u2500\u00bd": 227,
      "\u2500\u00bc": 228,
      "\u2500\u00a1": 229,
      "\u2500\u00ab": 230,
      "\u2500\u00bb": 231,
      "\u2500\u2591": 232,
      "\u2500\u2592": 233,
      "\u2500\u2593": 234,
      "\u2500\u2502": 235,
      "\u2500\u2524": 236,
      "\u2500\u2561": 237,
      "\u2500\u2562": 238,
      "\u2500\u2556": 239,
      "\u2500\u2555": 240,
      "\u2500\u2563": 241,
      "\u2500\u2551": 242,
      "\u2500\u2557": 243,
      "\u2500\u255d": 244,
      "\u2500\u255c": 245,
      "\u2500\u255b": 246,
      "\u2500\u2510": 247,
      "\u253c\u00c7": 248,
      "\u253c\u00fc": 249,
      "\u253c\u00e9": 250,
      "\u253c\u00e2": 251,
      "\u2500\u00e1t": 252,
      "\u2500\u00e1a": 253,
      "in": 254,
      "he": 255,
      "\u2500\u00e1\u2500\u00e1": 256,
      "re": 257,
      "on": 258,
      "er": 259,
      "\u2500\u00e1the": 260,
      "at": 261,
      "\u2500\u00e1s": 262,
      "\u2500\u00e1o": 263,
      "en": 264,
      "\u2500\u00e1c": 265,
      "es": 266,
      "\u2500\u00e1w": 267,
      "nd": 268,
      "it": 269,
      "or": 270,
      "is": 271,
      "al": 272,
      "\u2500\u00e1p": 273,
      "ing": 274,
      "\u2500\u00e1f": 275,
      "an": 276,
      "ed": 277,
      "\u2500\u00e1b": 278,
      "ou": 279,
      "ar": 280,
      "\u2500\u00e1in": 281,
      "\u2500\u00e1of": 282,
      "\u2500\u00e1m": 283,
      "\u2500\u00e1and": 284,
      "ion": 285,
      "ic": 286,
      "\u2500\u00e1d": 287,
      "\u2500\u00e1to": 288,
      "\u2500\u00e1\u2500\u00e1\u2500\u00e1\u2500\u00e1": 289,
      "le": 290,
      "ro": 291,
      "as": 292,
      "ent": 293,
      "\u2500\u00e1h": 294,
      "\u2500\u00e1th": 295,
      "ct": 296,
      "\u2500\u00e1e": 297,
      "\u2500\u00e1re": 298,
      "el": 299,
      "om": 300,
      "il": 301,
      "st": 302,
      "\u2500\u00e1l": 303,
      "\u2500\u00e1n": 304,
      "et": 305,
      "im": 306,
      "ve": 307,
      "ol": 308,
      "ation": 309,
      "\u2500\u00e1g": 310,
      "id": 311,
      "\u2500\u00e1T": 312,
      "se": 313,
      "\u2500\u00e1is": 314,
      "ur": 315,
      "ut": 316,
      "ra": 317,
      "ly": 318,
      "ce": 319,
      "ot": 320,
      "\u251c\u00f3\u2500\u00f3": 321,
      "ch": 322,
      "ow": 323,
      "ig": 324,
      "\u2500\u00e1be": 325,
      "\u2500\u00e1u": 326,
      "\u2500\u00e1for": 327,
      "\u2500\u00e1st": 328,
      "\u2500\u00e1y": 329,
      "\u2500\u00e1A": 330,
      "ver": 331,
      "am": 332,
      "\u2500\u00e1\u2500\u00e1\u2500\u00e1": 333,
      "\u2500\u00e1S": 334,
      "\u2500\u00e1on": 335,
      "ul": 336,
      "ir": 337,
      "\u2500\u00e1that": 338,
      "\u2500\u00e1I": 339,
      "\u2500\u00e1C": 340,
      "ay": 341,
      "if": 342,
      "ith": 343,
      "ad": 344,
      "\u2500\u00e1con": 345,
      "\u2500\u00e1you": 346,
      "\u2500\u00e1as": 347,
      "\u2500\u00e1pro": 348,
      "her": 349,
      "od": 350,
      "\u2500\u00e1with": 351,
      "ter": 352,
      "\u2500\u00e1\u2500\u00e1\u2500\u00e1\u2500\u00e1\u2500\u00e1\u2500\u00e1\u2500\u00e1\u2500\u00e1": 353,
      "\u2500\u00e1an": 354,
      "\u2500\u00e1or": 355,
      "\u2500\u00e1wh": 356,
      "\u2500\u00e1it": 357,
      "ment": 358,
      "\u2500\u00e1are": 359,
      "\u2500\u00e1al": 360,
      "ge": 361,
      "ess": 362,
      "ist": 363,
      "\u2500\u00e1ex": 364,
      "\u2500\u00e1(": 365,
      "ers": 366,
      "\u2500\u00e1de": 367,
      "ate": 368,
      "ab": 369,
      "ies": 370,
      "op": 371,
      "\u2500\u00e1M": 372,
      "th": 373,
      "ect": 374,
      "res": 375,
      "us": 376,
      "\u2500\u00e1P": 377,
      "\u2500\u00e1The": 378,
      "\u2500\u00e1com": 379,
      "iv": 380,
      "est": 381,
      "um": 382,
      "ity": 383,
      "\u2500\u00e1he": 384,
      "qu": 385,
      "\u2500\u00e1v": 386,
      "ac": 387,
      "ill": 388,
      "\u2500\u00e1B": 389,
      "ore": 390,
      "em": 391,
      "\u2500\u00e1we": 392,
      "\u2500\u00e1su": 393,
      "pp": 394,
      "os": 395,
      "ke": 396,
      "and": 397,
      "rom": 398,
      "nt": 399,
      "ld": 400,
      "ort": 401,
      "ain": 402,
      "ant": 403,
      "ive": 404,
      "igh": 405,
      "oc": 406,
      "\u2500\u00e1H": 407,
      "\u2500\u00e1W": 408,
      "ial": 409,
      "\u2500\u00e1ch": 410,
      "\u2500\u00e1by": 411,
      "\u2500\u00e1r": 412,
      "ud": 413,
      "\u2500\u00e1E": 414,
      "\u2500\u00e1\u2500\u00e1\u2500\u00e1\u2500\u00e1\u2500\u00e1\u2500\u00e1\u2500\u00e1": 415,
      "\u2500\u00e1can": 416,
      "\u251c\u00f3\u2500\u00f3\u2500\u2557": 417,
      "\u2500\u00e1at": 418,
      "un": 419,
      "\u2500\u00e1ne": 420,
      "\u2500\u00e1ha": 421,
      "\u2500\u00e1D": 422,
      "--": 423,
      "ure": 424,
      "\u2500\u00e1le": 425,
      "\u2500\u00e1F": 426,
      "\u2500\u00e1se": 427,
      "\u2500\u00e1R": 428,
      "\u2500\u00e1from": 429,
      "\u2500\u00e1en": 430,
      "ri": 431,
      "pe": 432,
      "ical": 433,
      "art": 434,
      "og": 435,
      "\u2500\u00e1was": 436,
      "pt": 437,
      "ions": 438,
      "pl": 439,
      "rou": 440,
      "\u2500\u00e1not": 441,
      "\u2500\u00e1N": 442,
      "\u2500\u00e1sh": 443,
      "\u2500\u00e1im": 444,
      "ight": 445,
      "\u2500\u00e1=": 446,
      "out": 447,
      "\u2500\u00e8\u2500\u00e1\u2500\u00e1\u2500\u00e1\u2500\u00e1\u2500\u00e1\u2500\u00e1\u2500\u00e1": 448,
      "all": 449,
      "\u2500\u00e1L": 450,
      "\u2500\u00e1this": 451,
      "\u2500\u00e1G": 452,
      "\u2500\u00e1ab": 453,
      "ag": 454,
      "red": 455,
      "per": 456,
      "\u2500\u00e1have": 457,
      "\u2500\u00e1wor": 458,
      "\u2500\u00e1\u251c\u00f3\u2500\u00f3": 459,
      "gh": 460,
      "our": 461,
      "ine": 462,
      "iz": 463,
      "\u2500\u00e1int": 464,
      "ome": 465,
      "\u2500\u00e8\u2500\u00e1\u2500\u00e1\u2500\u00e1\u2500\u00e1\u2500\u00e1\u2500\u00e1\u2500\u00e1\u2500\u00e1": 466,
      "ust": 467,
      "\u2500\u00e1us": 468,
      "\u2500\u00e1your": 469,
      "ould": 470,
      "act": 471,
      "\u2500\u00e8\u2500\u00e1\u2500\u00e1\u2500\u00e1": 472,
      "age": 473,
      "ost": 474,
      "\u2500\u00e1pl": 475,
      "\u2500\u00e1\"": 476,
      "ard": 477,
      "ell": 478,
      "ther": 479,
      "\u2500\u00e1their": 480,
      "ult": 481,
      "elf": 482,
      "ated": 483,
      "ff": 484,
      "ich": 485,
      "end": 486,
      "ans": 487,
      "ous": 488,
      "ide": 489,
      "ru": 490,
      "ations": 491,
      "\u2500\u00e1O": 492,
      "\u2500\u00e1ad": 493,
      "ak": 494,
      "\u2500\u00e1whe": 495,
      "du": 496,
      "cl": 497,
      "\u2500\u00e1cont": 498,
      "\u2500\u00e1res": 499,
      "ast": 500,
      "\u2500\u00e1k": 501,
      "\u2500\u00e1they": 502,
      "\u2500\u00e1comp": 503,
      "The": 504,
      "ib": 505,
      "'s": 506,
      "orm": 507,
      "ip": 508,
      "cc": 509,
      "\u2500\u00e1dis": 510,
      "\u2500\u00e1all": 511,
      "ap": 512,
      "ame": 513,
      "\u2500\u00e1U": 514,
      "able": 515,
      "ong": 516,
      "ear": 517,
      "ere": 518,
      "ie": 519,
      "ass": 520,
      "\u2500\u00e1imp": 521,
      "are": 522,
      "\u2500\u00e1will": 523,
      "ance": 524,
      "\u2500\u00e1Th": 525,
      "ind": 526,
      "\u2500\u00e1which": 527,
      "ood": 528,
      "ary": 529,
      "\u2500\u00e1J": 530,
      "ual": 531,
      "vel": 532,
      "\u2500\u00e1In": 533,
      "ep": 534,
      "ence": 535,
      "\u2500\u00e1do": 536,
      "one": 537,
      "ks": 538,
      "\u2500\u00e1cl": 539,
      "\u2500\u00e1more": 540,
      "ry": 541,
      "ia": 542,
      "\u2500\u00e1te": 543,
      "\u2500\u00e1j": 544,
      "ign": 545,
      "ue": 546,
      "ents": 547,
      "reat": 548,
      "\u2500\u00e1me": 549,
      "\u2500\u00e1other": 550,
      "\u2500\u00e1un": 551,
      "ile": 552,
      "\u2500\u00e1has": 553,
      "ach": 554,
      "\u2500\u00e1man": 555,
      "ime": 556,
      "ction": 557,
      "ild": 558,
      "so": 559,
      "ress": 560,
      "ces": 561,
      "\u2500\u00e1ar": 562,
      "\u2500\u00e1about": 563,
      "\u2500\u00e1but": 564,
      "av": 565,
      "\u2500\u00e1app": 566,
      "\u2500\u00e1per": 567,
      "oo": 568,
      "ice": 569,
      "ition": 570,
      "ater": 571,
      "ely": 572,
      "\u251c\u00f3\u2500\u00f3\u2500\u2510": 573,
      "\u2500\u00e1sp": 574,
      "ake": 575,
      "ase": 576,
      "\u2500\u00e1ev": 577,
      "\u2500\u00e1out": 578,
      "ors": 579,
      "ack": 580,
      "ens": 581,
      "\u2500\u00e1one": 582,
      "very": 583,
      "form": 584,
      "\u2500\u00e1if": 585,
      "----": 586,
      "ory": 587,
      "\u2500\u00e1so": 588,
      "ord": 589,
      "ace": 590,
      "int": 591,
      "\u2500\u00e1were": 592,
      "ber": 593,
      "nder": 594,
      ").": 595,
      "\u2500\u00e1li": 596,
      "\u2500\u00e1also": 597,
      "ount": 598,
      "\u2500\u00e1part": 599,
      "\u2500\u00e1comm": 600,
      "\u2500\u00e1them": 601,
      "ose": 602,
      "au": 603,
      "ang": 604,
      "ci": 605,
      "\u2500\u00e1stud": 606,
      "con": 607,
      "rit": 608,
      "ire": 609,
      "\u2500\u00e1pe": 610,
      "ub": 611,
      "now": 612,
      "\u2500\u00e1qu": 613,
      "\u2500\u00e1up": 614,
      "\u2500\u00e1sy": 615,
      "ings": 616,
      "\u2500\u00e1who": 617,
      "\u2500\u00e1into": 618,
      "\u2500\u00e1\u251c\u00f3\u2500\u00f3\u2500\u255b": 619,
      "ound": 620,
      "ish": 621,
      "\u2500\u00e1pre": 622,
      "\u2500\u00e1these": 623,
      "\u2500\u00e1its": 624,
      "\u2500\u00e1St": 625,
      "olog": 626,
      "iff": 627,
      "pec": 628,
      "\u2500\u00e8\u2500\u00e1\u2500\u00e1\u2500\u00e1\u2500\u00e1\u2500\u00e1\u2500\u00e1\u2500\u00e1\u2500\u00e1\u2500\u00e1\u2500\u00e1\u2500\u00e1": 629,
      "rough": 630,
      "ric": 631,
      "\u2500\u00e1fe": 632,
      "\u2500\u00e1bec": 633,
      "\u2500\u00e1some": 634,
      "\u2500\u00e1tra": 635,
      "ail": 636,
      "\u2500\u00e1'": 637,
      "\u2500\u00e1how": 638,
      "\u2500\u00e1self": 639,
      "ree": 640,
      "\u2500\u00e1ind": 641,
      "ities": 642,
      "),": 643,
      "king": 644,
      "\u2500\u00e1when": 645,
      "ays": 646,
      "ph": 647,
      "vers": 648,
      "\u2500\u00e1em": 649,
      "\u2500\u00e1his": 650,
      "\u2500\u00e1ro": 651,
      "ific": 652,
      "\u2500\u00e1our": 653,
      "\u2500\u00e1may": 654,
      "\u2500\u00e1time": 655,
      "\u2500\u00e1under": 656,
      "\u2500\u00e1It": 657,
      "ments": 658,
      "\u2500\u00e1K": 659,
      "ates": 660,
      "ople": 661,
      "ne": 662,
      "ite": 663,
      "\u2500\u00e1col": 664,
      "\u2500\u00e1there": 665,
      "\u2500\u00e1bet": 666,
      "urn": 667,
      "cre": 668,
      "\u2500\u00e1This": 669,
      "\u2500\u00e1than": 670,
      "ough": 671,
      "ys": 672,
      "\u2500\u00e1diff": 673,
      "ating": 674,
      "ob": 675,
      "te": 676,
      "we": 677,
      "\u2500\u00e1Ch": 678,
      "ath": 679,
      "ject": 680,
      "\u2500\u00e1tr": 681,
      "ally": 682,
      "low": 683,
      "erv": 684,
      "\u2500\u00e1go": 685,
      "ms": 686,
      "\u2500\u00e1cons": 687,
      "\u2500\u00e1ag": 688,
      "\u2500\u00e1ra": 689,
      "\u2500\u00e1over": 690,
      "lect": 691,
      "\u2500\u00e1rec": 692,
      "xt": 693,
      "\u2500\u00e1pr": 694,
      "ple": 695,
      "tern": 696,
      "ian": 697,
      "\u2500\u00e1acc": 698,
      "\u2500\u00e1know": 699,
      "cess": 700,
      "\u2500\u00e1people": 701,
      "\u2500\u00e1like": 702,
      "ove": 703,
      "\u2500\u00e1hel": 704,
      "\u2500\u00e1act": 705,
      "ata": 706,
      "ons": 707,
      "\u2500\u00e1des": 708,
      "lic": 709,
      "clud": 710,
      "ious": 711,
      "##": 712,
      "\u2500\u00e1year": 713,
      "arn": 714,
      "\u2500\u00e1such": 715,
      "\u2500\u00e1rel": 716,
      "\u2500\u00e1V": 717,
      "\u2500\u00e1Y": 718,
      "\u2500\u00e1been": 719,
      "row": 720,
      "ef": 721,
      "\u2500\u00e1use": 722,
      "ren": 723,
      "\u2500\u00e1help": 724,
      "\u2500\u00e1new": 725,
      "get": 726,
      "):": 727,
      "alth": 728,
      "irst": 729,
      "ert": 730,
      "\u2500\u00e1-": 731,
      "\u2500\u00e1what": 732,
      "ause": 733,
      "eth": 734,
      "les": 735,
      "\u2500\u00e1would": 736,
      "\u2500\u00e1need": 737,
      "\u2500\u00e1through": 738,
      "ful": 739,
      "stem": 740,
      "uring": 741,
      "round": 742,
      "\u2500\u00e1sa": 743,
      "\u2500\u00e1am": 744,
      "\u2500\u00e1eff": 745,
      "\u2500\u00e1work": 746,
      "ics": 747,
      "velop": 748,
      "ov": 749,
      "\u2500\u00e1any": 750,
      "ool": 751,
      "\u2500\u00e1import": 752,
      "\u2500\u00e1def": 753,
      "\u2500\u00e1bl": 754,
      "ular": 755,
      "ures": 756,
      "\u2500\u00e1ass": 757,
      "\u2500\u00e1spec": 758,
      "\u2500\u00e1gen": 759,
      "\u2500\u00e1tw": 760,
      "\u2500\u00e1had": 761,
      "rib": 762,
      "mer": 763,
      "ll": 764,
      "\u2500\u00e1includ": 765,
      "ced": 766,
      "\u2500\u00e1off": 767,
      "\u2500\u00e1most": 768,
      "ise": 769,
      "hed": 770,
      "self": 771,
      "\u2500\u00e1prov": 772,
      "port": 773,
      "iss": 774,
      "ract": 775,
      "ange": 776,
      "\u2500\u00e1ph": 777,
      "ict": 778,
      "\u2500\u00e1reg": 779,
      "ational": 780,
      "als": 781,
      "\u2500\u00e1differe": 782,
      "ility": 783,
      "\u2500\u00e1ac": 784,
      "pect": 785,
      "oss": 786,
      "\u2500\u00e1no": 787,
      "In": 788,
      "oth": 789,
      "ook": 790,
      "ative": 791,
      "ark": 792,
      "old": 793,
      "\u2500\u00e1ob": 794,
      "hen": 795,
      "\u2500\u00e1produ": 796,
      "\u2500\u00e1inv": 797,
      "\u2500\u00e1mod": 798,
      "\u2500\u00e1develop": 799,
      "\u2500\u00e1many": 800,
      "\u2500\u00e1di": 801,
      "\u2500\u00e1rem": 802,
      "\u2500\u00e1add": 803,
      "\u2500\u00e1used": 804,
      "\u2500\u00e1only": 805,
      "\u2500\u00e1sc": 806,
      "fter": 807,
      "\u2500\u00e1first": 808,
      "ween": 809,
      "\u2500\u00e1Un": 810,
      "\u2500\u00e1child": 811,
      "ible": 812,
      "ten": 813,
      "ram": 814,
      "uc": 815,
      "\u2500\u00e1\u251c\u00f3\u2500\u00f3\u2500\u2561": 816,
      "\u2500\u00e1system": 817,
      "arch": 818,
      "\u2500\u00e1att": 819,
      "\u2500\u00e1get": 820,
      "ased": 821,
      "\u2500\u00e1inst": 822,
      "ower": 823,
      "com": 824,
      "cept": 825,
      "\u2500\u00e1between": 826,
      "\u2500\u00e1two": 827,
      "**": 828,
      "\u2500\u00e1ret": 829,
      "ife": 830,
      "chn": 831,
      "\u2500\u00e1fl": 832,
      "erm": 833,
      "\u2500\u00e1inf": 834,
      "\u2500\u00e1learn": 835,
      "ize": 836,
      "\u2500\u00e1where": 837,
      "\u2500\u00e1sur": 838,
      "wn": 839,
      "\u2500\u00e1sub": 840,
      "\u2500\u00e1exam": 841,
      "its": 842,
      "\u2500\u00e1inter": 843,
      "\u2500\u00e1po": 844,
      "own": 845,
      "ew": 846,
      "ond": 847,
      "\u2500\u00e1pers": 848,
      "ts": 849,
      "\u2500\u00e1trans": 850,
      "ps": 851,
      "hes": 852,
      "\u2500\u00e1pol": 853,
      "ble": 854,
      "\u2500\u00e1exper": 855,
      "\u2500\u00e1could": 856,
      "\u2500\u00e1co": 857,
      "\u2500\u00e1supp": 858,
      "ss": 859,
      "ution": 860,
      "\u2500\u00e1num": 861,
      "ting": 862,
      "ng": 863,
      "\u2500\u00e1health": 864,
      "\u2500\u00e1sm": 865,
      "ty": 866,
      "ural": 867,
      "\u2500\u00e1should": 868,
      "ern": 869,
      "gan": 870,
      "\u2500\u00e1str": 871,
      "ever": 872,
      "cy": 873,
      "\u2500\u00e1her": 874,
      "ues": 875,
      "\u2500\u00e1well": 876,
      "\u2500\u00e1bu": 877,
      "ily": 878,
      "stand": 879,
      "ident": 880,
      "erg": 881,
      "oci": 882,
      "\u2500\u00e1ty": 883,
      "ines": 884,
      "ied": 885,
      "\u2500\u00e1val": 886,
      "\u2500\u00e1pres": 887,
      "ex": 888,
      "\u2500\u00e1expl": 889,
      "__": 890,
      "\u2500\u00e1var": 891,
      "fore": 892,
      "\u2500\u00e1rese": 893,
      "aking": 894,
      "\u2500\u00e1sim": 895,
      "\u2500\u00e1different": 896,
      "\u2500\u00e1every": 897,
      "ives": 898,
      "ology": 899,
      "ink": 900,
      "ick": 901,
      "\u2500\u00e1ke": 902,
      "ade": 903,
      "\u2500\u00e1high": 904,
      "\u2500\u00e1world": 905,
      "ature": 906,
      "\u2500\u00e1#": 907,
      "\u2500\u00e1even": 908,
      "\u2500\u00e1He": 909,
      "\u2500\u00e1form": 910,
      "ists": 911,
      "aw": 912,
      "\u2500\u00e1water": 913,
      "\u2500\u00e1sign": 914,
      "\u2500\u00e1just": 915,
      "--------": 916,
      "ants": 917,
      "ism": 918,
      "\u2500\u00e1make": 919,
      "vent": 920,
      "\u2500\u00e1exp": 921,
      "oy": 922,
      "',": 923,
      "ness": 924,
      "uch": 925,
      "ft": 926,
      "ins": 927,
      "iew": 928,
      "\u2500\u00e1years": 929,
      "\u2500\u00e1ref": 930,
      "ds": 931,
      "\u2500\u00e1set": 932,
      "\u2500\u00e1[": 933,
      "\u2500\u00e1commun": 934,
      "\u2500\u00e1cre": 935,
      "ck": 936,
      "\u2500\u00e1disc": 937,
      "arg": 938,
      "\u2500\u00e1techn": 939,
      "\u2500\u00e1data": 940,
      "chool": 941,
      "\u2500\u00e1Re": 942,
      "ices": 943,
      "\u2500\u00e1requ": 944,
      "\u2500\u00e8\u2500\u00e1\u2500\u00e1\u2500\u00e1\u2500\u00e1\u2500\u00e1\u2500\u00e1\u2500\u00e1\u2500\u00e1\u2500\u00e1\u2500\u00e1\u2500\u00e1\u2500\u00e1\u2500\u00e1\u2500\u00e1\u2500\u00e1\u2500\u00e1": 945,
      "\u2500\u00e1call": 946,
      "ically": 947,
      "\u2500\u00e1hum": 948,
      "other": 949,
      "..": 950,
      "ax": 951,
      "ential": 952,
      "\u2500\u00e1ed": 953,
      "ars": 954,
      "\u2500\u00e1gra": 955,
      "iel": 956,
      "\u2500\u00e1my": 957,
      "\u2500\u00e1med": 958,
      "ward": 959,
      "ited": 960,
      "ruct": 961,
      "hat": 962,
      "\u2500\u00e1see": 963,
      "\u2500\u00e1det": 964,
      "\u2500\u00e1then": 965,
      "\u2500\u00e1result": 966,
      "\u2500\u00e1those": 967,
      "ually": 968,
      "ages": 969,
      "\u2500\u00e1way": 970,
      "\u2500\u00e1each": 971,
      "formation": 972,
      "\u2500\u00e1ins": 973,
      "hip": 974,
      "\u2500\u00e1because": 975,
      "ection": 976,
      "\u2500\u00e1effect": 977,
      "\u2500\u00e1bel": 978,
      "\u2500\u00e1while": 979,
      "\u2500\u00e1process": 980,
      "\u2500\u00e1during": 981,
      "'t": 982,
      "\u2500\u00e1found": 983,
      "\u2500\u00e1art": 984,
      "\u2500\u00e1count": 985,
      "\u2500\u00e1long": 986,
      "\u2500\u00e1pat": 987,
      "\u2500\u00e1dec": 988,
      "\u2500\u00e1fol": 989,
      "\u2500\u00e1after": 990,
      "\u2500\u00e1gener": 991,
      "ron": 992,
      "\u2500\u00e1ext": 993,
      "arm": 994,
      "meric": 995,
      "\u2500\u00e1cent": 996,
      "ety": 997,
      "ands": 998,
      "\u2500\u00e1incre": 999,
      "()": 1000,
      "\u2500\u00e1loc": 1001,
      "\",": 1002,
      "\u2500\u00e1return": 1003,
      "\u2500\u00e8\u2500\u00e8\u2500\u00e1\u2500\u00e1\u2500\u00e1": 1004,
      "ized": 1005,
      "\u2500\u00e1dist": 1006,
      "led": 1007,
      "\u2500\u00e1prog": 1008,
      "iron": 1009,
      "ient": 1010,
      "\u2500\u00e1sk": 1011,
      "\u2500\u00e1read": 1012,
      "\u2500\u00e1ent": 1013,
      "imes": 1014,
      "\u2500\u00e1using": 1015,
      "\u2500\u00e1partic": 1016,
      "\u2500\u00e1pub": 1017,
      "de": 1018,
      "arly": 1019,
      "\u2500\u00e1ca": 1020,
      "\u2500\u00e1cur": 1021,
      "\u2500\u00e1lead": 1022,
      "\u2500\u00e1aut": 1023,
      "\u2500\u00e1rep": 1024,
      "els": 1025,
      "\u2500\u00e1hist": 1026,
      "\u2500\u00e1fact": 1027,
      "\u2500\u00e1test": 1028,
      "\u2500\u00e1life": 1029,
      "\u2500\u00e1comple": 1030,
      "\u2500\u00e1fam": 1031,
      "\u2500\u00e1As": 1032,
      "ivid": 1033,
      "ivers": 1034,
      "\u2500\u00e1very": 1035,
      "\u2500\u00e1being": 1036,
      "\u2500\u00e1fun": 1037,
      "\u2500\u00e1own": 1038,
      "ning": 1039,
      "read": 1040,
      "\u2500\u00e1she": 1041,
      "\u2500\u00e1find": 1042,
      "ody": 1043,
      "\u2500\u00e1understand": 1044,
      "iqu": 1045,
      "\u2500\u00e1We": 1046,
      "\u2500\u00e8\u2500\u00e1\u2500\u00e1\u2500\u00e1\u2500\u00e1\u2500\u00e1\u2500\u00e1\u2500\u00e1\u2500\u00e1\u2500\u00e1\u2500\u00e1\u2500\u00e1\u2500\u00e1\u2500\u00e1\u2500\u00e1\u2500\u00e1": 1047,
      "\u2500\u00e1right": 1048,
      "ases": 1049,
      "cent": 1050,
      "ork": 1051,
      "\u2500\u00e1Americ": 1052,
      "\u2500\u00e1Pro": 1053,
      "\u2500\u00e1resp": 1054,
      "\u2500\u00e1person": 1055,
      "\u2500\u00e1back": 1056,
      "gg": 1057,
      "\u2500\u00e1students": 1058,
      "eng": 1059,
      "\u2500\u00e1dep": 1060,
      "ved": 1061,
      "\u2500\u00e1both": 1062,
      "ather": 1063,
      "ality": 1064,
      "\u2500\u00e1Al": 1065,
      "\u2500\u00e1follow": 1066,
      "\u2500\u00e1writ": 1067,
      "\u2500\u00e1For": 1068,
      "\u2500\u00e1They": 1069,
      "\u2500\u00e1important": 1070,
      "\u2500\u00e1Con": 1071,
      "\u2500\u00e1does": 1072,
      "\u2500\u00e1How": 1073,
      "\u2500\u00e1gl": 1074,
      "\u2500\u00e1grow": 1075,
      "\u2500\u00e1car": 1076,
      "ock": 1077,
      "put": 1078,
      "\u2500\u00e1min": 1079,
      "tle": 1080,
      "\u2500\u00e1Com": 1081,
      "Th": 1082,
      "\u2500\u00e1much": 1083,
      "dition": 1084,
      "\u2500\u00e1main": 1085,
      "\u2500\u00e1conf": 1086,
      "viron": 1087,
      "ix": 1088,
      "\u2500\u00e1che": 1089,
      "\u2500\u00e1appro": 1090,
      "\u2500\u00e1mon": 1091,
      "\u2500\u00e1before": 1092,
      "\"\"": 1093,
      "\u2500\u00e1If": 1094,
      "par": 1095,
      "\u2500\u00e1information": 1096,
      "\u2500\u00e1som": 1097,
      "\u2500\u00e1grou": 1098,
      "ves": 1099,
      "\u2500\u00e1sol": 1100,
      "\u2500\u00e1sci": 1101,
      "\u2500\u00e1el": 1102,
      "ving": 1103,
      "inal": 1104,
      "\u2500\u00e1proble": 1105,
      "\u2500\u00e1level": 1106,
      "ional": 1107,
      "\u2500\u00e1study": 1108,
      "\u2500\u00e1great": 1109,
      "up": 1110,
      "any": 1111,
      "\u2500\u00e1end": 1112,
      "\u2500\u00e1av": 1113,
      "\u2500\u00e1food": 1114,
      "\u2500\u00e1experi": 1115,
      "\u2500\u00e8\u2500\u00e8": 1116,
      "\u2500\u00e1An": 1117,
      "nce": 1118,
      "io": 1119,
      "\u2500\u00e1start": 1120,
      "ale": 1121,
      "\u2500\u00e1children": 1122,
      "\u2500\u00e1good": 1123,
      "\u2500\u00e1might": 1124,
      "\u2500\u00e1school": 1125,
      "eg": 1126,
      "\u2500\u00e1within": 1127,
      "\u2500\u00e1class": 1128,
      "\u2500\u00e1often": 1129,
      "\u2500\u00e1around": 1130,
      "uss": 1131,
      "ted": 1132,
      "\u2500\u00e1cor": 1133,
      "ave": 1134,
      "\u2500\u00e1made": 1135,
      "ering": 1136,
      "\u2500\u00e1said": 1137,
      "\u2500\u00e1show": 1138,
      "\u2500\u00e1pop": 1139,
      "vern": 1140,
      "to": 1141,
      "\u2500\u00e1same": 1142,
      ".,": 1143,
      "\u2500\u00e1pract": 1144,
      "und": 1145,
      "ute": 1146,
      "\u2500\u00e1too": 1147,
      "anc": 1148,
      "\u2500\u00e1power": 1149,
      "\u2500\u00e1lit": 1150,
      "\u2500\u00e1research": 1151,
      "\u2500\u00e1vis": 1152,
      "ier": 1153,
      "akes": 1154,
      "rain": 1155,
      "\u2500\u00e1br": 1156,
      "\u2500\u00e1design": 1157,
      "\u2500\u00e1op": 1158,
      "ec": 1159,
      "rent": 1160,
      "\u2500\u00e1provid": 1161,
      "\u2500\u00e1activ": 1162,
      "\u2500\u00e1again": 1163,
      "\u2500\u00e1prot": 1164,
      "\u2500\u00e1small": 1165,
      "\u2500\u00e1Ar": 1166,
      "\u2500\u00e1allow": 1167,
      "\u2500\u00e1adv": 1168,
      "\u2500\u00e1mem": 1169,
      "ocial": 1170,
      "\u2500\u00e1mat": 1171,
      "ross": 1172,
      "itions": 1173,
      "\u2500\u00e1serv": 1174,
      "ets": 1175,
      "\u2500\u00e1care": 1176,
      "iving": 1177,
      "\u2500\u00e1poss": 1178,
      "ividual": 1179,
      "pr": 1180,
      "\u2500\u00e1less": 1181,
      "ode": 1182,
      "\u2500\u00e1example": 1183,
      ".\u251c\u00f3\u2500\u00f3\u2500\u2510": 1184,
      "air": 1185,
      "ethod": 1186,
      "\u2500\u00e1down": 1187,
      "\u2500\u00e1take": 1188,
      "==": 1189,
      "\u2500\u00e1contin": 1190,
      "ters": 1191,
      "\u2500\u00e1organ": 1192,
      "rol": 1193,
      "\u2500\u00e1day": 1194,
      "the": 1195,
      "irect": 1196,
      "ield": 1197,
      "ince": 1198,
      "\u2500\u00e1support": 1199,
      "vironment": 1200,
      "ital": 1201,
      "\u2500\u00e1cult": 1202,
      "omen": 1203,
      "\u2500\u00e1quest": 1204,
      "\u2500\u00e1human": 1205,
      "\u2500\u00e1You": 1206,
      "app": 1207,
      "\u2500\u00e1treat": 1208,
      "\u2500\u00e1now": 1209,
      "ined": 1210,
      "ished": 1211,
      "\u2500\u00e1individual": 1212,
      "\u2500\u00e1gu": 1213,
      "ared": 1214,
      "\u2500\u00e1state": 1215,
      "\u2500\u00e1These": 1216,
      "\u2500\u00e1called": 1217,
      "\u2500\u00e1Ind": 1218,
      "land": 1219,
      "\u2500\u00e1equ": 1220,
      "val": 1221,
      "day": 1222,
      "der": 1223,
      "arge": 1224,
      "\u2500\u00e1point": 1225,
      "ergy": 1226,
      "\u2500\u00e1eng": 1227,
      "pro": 1228,
      "####": 1229,
      "\u2500\u00e1number": 1230,
      "tt": 1231,
      "\u2500\u00e1+": 1232,
      "\u2500\u00e1cle": 1233,
      "\u2500\u00e1redu": 1234,
      "\u2500\u00e1build": 1235,
      "\u2500\u00e1ser": 1236,
      "ization": 1237,
      "\u2500\u00e1play": 1238,
      "\u2500\u00e1though": 1239,
      "ral": 1240,
      "ven": 1241,
      "\u2500\u00e1prof": 1242,
      "\u2500\u00e1aw": 1243,
      "\u2500\u00e1ris": 1244,
      "name": 1245,
      "ired": 1246,
      "ulation": 1247,
      "\u2500\u00e1body": 1248,
      "\u2500\u00e1But": 1249,
      "\u2500\u00e1did": 1250,
      "\u2500\u00e1must": 1251,
      "\u2500\u00e1plan": 1252,
      "ains": 1253,
      "ency": 1254,
      "\u2500\u00e1pos": 1255,
      "\u2500\u00e1beh": 1256,
      "\u2500\u00e1occ": 1257,
      "raph": 1258,
      "ences": 1259,
      "hers": 1260,
      "\u2500\u00e1const": 1261,
      "\u2500\u00e1aff": 1262,
      "\u2500\u00e1cour": 1263,
      "\u2500\u00e1est": 1264,
      "\u251c\u00f3\u2500\u00f3\u2500\u2562": 1265,
      "\u2500\u00e1inc": 1266,
      "\u2500\u00e1pot": 1267,
      "\u2500\u00e1Se": 1268,
      "acter": 1269,
      ".\"": 1270,
      "ources": 1271,
      "\u2500\u00e1him": 1272,
      "\u2500\u00e1common": 1273,
      "ull": 1274,
      "ories": 1275,
      "ately": 1276,
      "\u2500\u00e1want": 1277,
      "\u2500\u00e1met": 1278,
      "erest": 1279,
      "\u2500\u00e1par": 1280,
      "ense": 1281,
      "ify": 1282,
      "ered": 1283,
      "\u2500\u00e1ident": 1284,
      "\u2500\u00e1including": 1285,
      "aterial": 1286,
      "ah": 1287,
      "rue": 1288,
      "ption": 1289,
      "\u2500\u00e1ide": 1290,
      "\u2500\u00e1dise": 1291,
      "))": 1292,
      "ury": 1293,
      "ining": 1294,
      "iversity": 1295,
      "\u2500\u00e1three": 1296,
      "\u2500\u00e1cell": 1297,
      "iven": 1298,
      "oh": 1299,
      "mon": 1300,
      "\u2500\u00e1pass": 1301,
      "ination": 1302,
      "\u2500\u00e1let": 1303,
      "\u2500\u00e1typ": 1304,
      "('": 1305,
      "py": 1306,
      "ability": 1307,
      "\u2500\u00e1educ": 1308,
      "\u2500\u00e1iss": 1309,
      "ider": 1310,
      "line": 1311,
      "angu": 1312,
      "\u2500\u00e1elect": 1313,
      "ource": 1314,
      "\u2500\u00e1New": 1315,
      "\u2500\u00e1Wh": 1316,
      "ash": 1317,
      "\u2500\u00e1Ad": 1318,
      "ids": 1319,
      "ively": 1320,
      "str": 1321,
      "ateg": 1322,
      "\u2500\u00e1Ex": 1323,
      "ox": 1324,
      "less": 1325,
      "\u2500\u00e1don": 1326,
      "ertain": 1327,
      "itive": 1328,
      "\u2500\u00e1social": 1329,
      "\u2500\u00e1govern": 1330,
      "||": 1331,
      "ples": 1332,
      "ries": 1333,
      "\u2500\u00e1impro": 1334,
      "conom": 1335,
      "\u2500\u00e1char": 1336,
      "ead": 1337,
      "\u2500\u00e1anal": 1338,
      "\u2500\u00e1creat": 1339,
      "lish": 1340,
      "\u2500\u00e1method": 1341,
      "\u2500\u00e1invol": 1342,
      "\u2500\u00e1known": 1343,
      "bers": 1344,
      "\u2500\u00e1real": 1345,
      "aj": 1346,
      "\u2500\u00e1del": 1347,
      "This": 1348,
      "\u2500\u00e1conn": 1349,
      "\u2500\u00e1And": 1350,
      "\u2500\u00e1ess": 1351,
      "iness": 1352,
      "oun": 1353,
      "por": 1354,
      "\u2500\u00e1without": 1355,
      "\u2500\u00e1tem": 1356,
      "\u2500\u00e1environment": 1357,
      "ccess": 1358,
      "\u2500\u00e1chang": 1359,
      "\u2500\u00e1public": 1360,
      "\u2500\u00e1still": 1361,
      "ner": 1362,
      "\u2500\u00e1change": 1363,
      "\u2500\u00e1signific": 1364,
      "\u2500\u00e1better": 1365,
      "\u2500\u00e1prom": 1366,
      "\u2500\u00e1eas": 1367,
      "ouse": 1368,
      "\u2500\u00e1hand": 1369,
      "tain": 1370,
      "iod": 1371,
      "\u2500\u00e1another": 1372,
      "view": 1373,
      "lu": 1374,
      "ially": 1375,
      "\u2500\u00e1material": 1376,
      "ape": 1377,
      "\u2500\u00e1report": 1378,
      "\u2500\u00e1place": 1379,
      "\u2500\u00e1learning": 1380,
      "\u2500\u00e1pur": 1381,
      "ived": 1382,
      "\u2500\u00e1opp": 1383,
      "\u2500\u00e1interest": 1384,
      "\u2500\u00e1There": 1385,
      "\u2500\u00e1present": 1386,
      "\u2500\u00e1dr": 1387,
      "oms": 1388,
      "pos": 1389,
      "ends": 1390,
      "\u2500\u00e1project": 1391,
      "uro": 1392,
      "St": 1393,
      "\u2500\u00e1ben": 1394,
      "orn": 1395,
      "\u2500\u00e1sit": 1396,
      "arent": 1397,
      "\u2500\u00e1list": 1398,
      "\u2500\u00e1bre": 1399,
      "over": 1400,
      "\u2500\u00e1spe": 1401,
      "\u2500\u00e1belie": 1402,
      "\u2500\u00e1phys": 1403,
      "rodu": 1404,
      "ior": 1405,
      "\u2500\u00e1product": 1406,
      "\u2500\u00e1feel": 1407,
      "\u2500\u00e1cap": 1408,
      "ration": 1409,
      "\u2500\u00e8\u2500\u00e8\u2500\u00e1\u2500\u00e1\u2500\u00e1\u2500\u00e1\u2500\u00e1\u2500\u00e1\u2500\u00e1": 1410,
      "ills": 1411,
      "oad": 1412,
      "\u2500\u00e1De": 1413,
      "cing": 1414,
      "ision": 1415,
      "ason": 1416,
      "ental": 1417,
      "li": 1418,
      "bs": 1419,
      "\u2500\u00e1light": 1420,
      "\u2500\u00e1development": 1421,
      "\u2500\u00e1sym": 1422,
      "\u2500\u00e1However": 1423,
      "\u2500\u00e1mus": 1424,
      "be": 1425,
      "\u2500\u00e1imm": 1426,
      "\u2500\u00e1ele": 1427,
      "\u2500\u00e1By": 1428,
      "cond": 1429,
      "ological": 1430,
      "\u2500\u00e1Is": 1431,
      "ething": 1432,
      "ug": 1433,
      "ently": 1434,
      "ording": 1435,
      "ances": 1436,
      "az": 1437,
      "\u2500\u00e1become": 1438,
      "\u2500\u00e1energy": 1439,
      "\u2500\u00e1open": 1440,
      "\u2500\u00e1mean": 1441,
      "atic": 1442,
      "\u2500\u00e1few": 1443,
      "hor": 1444,
      "\u2500\u00e1caus": 1445,
      "\u2500\u00e1keep": 1446,
      ",\u251c\u00f3\u2500\u00f3\u2500\u2510": 1447,
      "ention": 1448,
      "\u2500\u00e1others": 1449,
      "\u2500\u00e1best": 1450,
      "\u2500\u00e1fac": 1451,
      "ways": 1452,
      "\u2500\u00e1include": 1453,
      "\u2500\u00e1direct": 1454,
      "from": 1455,
      "\u2500\u00e1&": 1456,
      "ats": 1457,
      "\u2500\u00e1vari": 1458,
      "ank": 1459,
      "ium": 1460,
      "\u2500\u00e1various": 1461,
      "\u2500\u00e1name": 1462,
      "\u2500\u00e1history": 1463,
      "\u2500\u00e1create": 1464,
      "')": 1465,
      "\u2500\u00e1top": 1466,
      "ery": 1467,
      "']": 1468,
      "outh": 1469,
      "(\"": 1470,
      "\u2500\u00e1Eng": 1471,
      "oint": 1472,
      "\u2500\u00e1happ": 1473,
      "\u2500\u00e1sever": 1474,
      "\u2500\u00e1leg": 1475,
      "ocus": 1476,
      "\u2500\u00e1perform": 1477,
      "\u2500\u00e1home": 1478,
      "\u2500\u00e1proper": 1479,
      "agn": 1480,
      "\u2500\u00e1stand": 1481,
      "\u2500\u00e1et": 1482,
      "man": 1483,
      "ray": 1484,
      "\u2500\u00e1move": 1485,
      "\u2500\u00e1among": 1486,
      "arc": 1487,
      "\u2500\u00e1something": 1488,
      "\u2500\u00e1mark": 1489,
      "ected": 1490,
      "ton": 1491,
      "\u2500\u00e1look": 1492,
      "\u2500\u00e1saf": 1493,
      "\u251c\u00f3\u2500\u00f3\u2500\u2561": 1494,
      "\u2500\u00e1things": 1495,
      "ique": 1496,
      "\u2500\u00e1chall": 1497,
      "ified": 1498,
      "\u2500\u00e1meas": 1499,
      "\u2500\u00e1langu": 1500,
      "\u2500\u00e1fin": 1501,
      "\u2500\u00e1type": 1502,
      "atch": 1503,
      "ames": 1504,
      "\u2500\u00e1Res": 1505,
      "ians": 1506,
      "\u2500\u00e1large": 1507,
      "ator": 1508,
      "\u2500\u00e1sl": 1509,
      "\u2500\u00e1think": 1510,
      "\u2500\u00e1desc": 1511,
      "\u2500\u00e1air": 1512,
      "sc": 1513,
      "ogn": 1514,
      "atural": 1515,
      "\u2500\u00e1bas": 1516,
      "\u2500\u00e1function": 1517,
      "erc": 1518,
      "ling": 1519,
      "ote": 1520,
      "\u2500\u00e1Ph": 1521,
      "oring": 1522,
      "\u2500\u00e1against": 1523,
      "imate": 1524,
      "\u2500\u00e1law": 1525,
      "ients": 1526,
      "ext": 1527,
      "\u2500\u00e1group": 1528,
      "\u2500\u00e1oper": 1529,
      "\u2500\u00e1means": 1530,
      "here": 1531,
      "\u2500\u00e1rest": 1532,
      "\u2500\u00e1control": 1533,
      "\u2500\u00e1dev": 1534,
      "\u2500\u00e1here": 1535,
      "ograph": 1536,
      "path": 1537,
      "\u2500\u00e1provide": 1538,
      "':": 1539,
      "urther": 1540,
      "\u2500\u00e1Sh": 1541,
      "\u2500\u00e1particular": 1542,
      "\u2500\u00e1anim": 1543,
      "\u2500\u00e1hy": 1544,
      "\u2500\u00e1several": 1545,
      "\u2500\u00e1significant": 1546,
      "\u2500\u00e1American": 1547,
      "ember": 1548,
      "\u2500\u00e1bus": 1549,
      "\u2500\u00e1When": 1550,
      "\u2500\u00e1\u251c\u00f3\u2500\u00f3\u2500\u2551": 1551,
      "\u2500\u00e1based": 1552,
      "arth": 1553,
      "\u2500\u00e1women": 1554,
      "eral": 1555,
      "\u2500\u00e1pain": 1556,
      "\u2500\u00e1area": 1557,
      "me": 1558,
      "//": 1559,
      "sy": 1560,
      "rop": 1561,
      "\u2500\u00e1tre": 1562,
      "ards": 1563,
      "\u2500\u00e1family": 1564,
      "ots": 1565,
      "\u2500\u00e1potential": 1566,
      "iver": 1567,
      "\u2500\u00e1due": 1568,
      "\u2500\u00e1object": 1569,
      "\u2500\u00e1enc": 1570,
      "err": 1571,
      "resent": 1572,
      "\u2500\u00e1old": 1573,
      "\u2500\u00e1current": 1574,
      "\u2500\u00e1mult": 1575,
      "\u2500\u00e1try": 1576,
      "\u2500\u00e1:": 1577,
      "\u2500\u00e1program": 1578,
      "ortun": 1579,
      "\u2500\u00e1ens": 1580,
      "aper": 1581,
      "\u2500\u00e1econom": 1582,
      "\u2500\u00e1beg": 1583,
      "\u2500\u00e1early": 1584,
      "\u251c\u00f3\u2500\u00f3\u2500\u255b": 1585,
      "\u2500\u00e1fil": 1586,
      "\u2500\u00e1lab": 1587,
      "\u2500\u00e1cal": 1588,
      "It": 1589,
      "\u2500\u00e1ve": 1590,
      "\u2500\u00e1toget": 1591,
      "\u2500\u00e1together": 1592,
      "\u2500\u00e1focus": 1593,
      "\u2500\u00e1access": 1594,
      "sh": 1595,
      "\u2500\u00e1last": 1596,
      "\u2500\u00e1unt": 1597,
      "\u2500\u00e1ant": 1598,
      "\u2500\u00e1es": 1599,
      "\u2500\u00e1benef": 1600,
      "['": 1601,
      "uture": 1602,
      "\u2500\u00e1non": 1603,
      "def": 1604,
      "lished": 1605,
      "\u2500\u00e1Q": 1606,
      "\u2500\u00e1turn": 1607,
      "ission": 1608,
      "\u2500\u00e1lim": 1609,
      "\u2500\u00e1struct": 1610,
      "\u2500\u00e1disease": 1611,
      "br": 1612,
      "amp": 1613,
      "set": 1614,
      "ditions": 1615,
      "\u2500\u00e1orig": 1616,
      "ploy": 1617,
      "ajor": 1618,
      "\u2500\u00e1fre": 1619,
      "\u2500\u00e1\"\"\"": 1620,
      "\u2500\u00e1risk": 1621,
      "\u2500\u00e1soci": 1622,
      "\u2500\u00e1fore": 1623,
      "\u2500\u00e1success": 1624,
      "\u2500\u00e1making": 1625,
      "\u2500\u00e1To": 1626,
      ",\"": 1627,
      "\u2500\u00e1print": 1628,
      "ication": 1629,
      "\u2500\u00e1opt": 1630,
      "\u2500\u00e1avail": 1631,
      "\u2500\u00e1bi": 1632,
      "oid": 1633,
      "\u2500\u00e1crit": 1634,
      "orth": 1635,
      "\u2500\u00e1possible": 1636,
      "work": 1637,
      "\u2500\u00e1University": 1638,
      "gen": 1639,
      "rist": 1640,
      "ression": 1641,
      "\u2500\u00e1low": 1642,
      "\u2500\u00e1say": 1643,
      "\u2500\u00e1So": 1644,
      "\u2500\u00e1impact": 1645,
      "\u2500\u00e1key": 1646,
      "\u2500\u00e1certain": 1647,
      "aut": 1648,
      "ribut": 1649,
      "\u2500\u00e1cr": 1650,
      "sel": 1651,
      "\u2500\u00e1Pl": 1652,
      "As": 1653,
      "\u2500\u00e1bo": 1654,
      "\u2500\u00e1mil": 1655,
      "\u2500\u00eb\u2500\u00eb": 1656,
      "\u2500\u00e1period": 1657,
      "\u2500\u00e1run": 1658,
      "min": 1659,
      "\u2500\u00e1scient": 1660,
      "\u2500\u00e1Cl": 1661,
      "\u2500\u00e1{": 1662,
      "\u2500\u00e1mill": 1663,
      "agement": 1664,
      "\u2500\u00e1gr": 1665,
      "\u2500\u00e1land": 1666,
      "idence": 1667,
      "cle": 1668,
      "\u2500\u00e1fri": 1669,
      "\u2500\u00e1blood": 1670,
      "\u2500\u00e1case": 1671,
      "\u2500\u00e1*": 1672,
      "\u2500\u00e1.": 1673,
      "ane": 1674,
      "\u2500\u00e1since": 1675,
      "hem": 1676,
      "ides": 1677,
      "\u2500\u00e1specific": 1678,
      "\u2500\u00e1local": 1679,
      "\u2500\u00e1head": 1680,
      "\u2500\u00e1post": 1681,
      "ann": 1682,
      "\u2500\u00e1along": 1683,
      "clus": 1684,
      "\u2500\u00e1value": 1685,
      "\u2500\u00e1order": 1686,
      "ems": 1687,
      "----------------": 1688,
      "\u2500\u00e1occur": 1689,
      "\u2500\u00e1come": 1690,
      "\u2500\u00e1Sp": 1691,
      "\u2500\u00e1discuss": 1692,
      "\u2500\u00e1government": 1693,
      "\u2500\u00e1text": 1694,
      "\u2500\u00e1following": 1695,
      "olution": 1696,
      "ww": 1697,
      "\u2500\u00e1En": 1698,
      "\u2500\u00e1across": 1699,
      "\u2500\u00e1conc": 1700,
      "\u2500\u00e1why": 1701,
      "pre": 1702,
      "\u2500\u00e1\u2500\u00e1\u2500\u00e1\u2500\u00e1\u2500\u00e1\u2500\u00e1\u2500\u00e1\u2500\u00e1\u2500\u00e1\u2500\u00e1\u2500\u00e1\u2500\u00e1\u2500\u00e1\u2500\u00e1\u2500\u00e1\u2500\u00e1": 1703,
      "cer": 1704,
      "icle": 1705,
      "\u2500\u00e1addition": 1706,
      "ledge": 1707,
      "\u2500\u00e1cost": 1708,
      "raw": 1709,
      "for": 1710,
      "\u2500\u00e1times": 1711,
      "\u2500\u00e1Col": 1712,
      "mit": 1713,
      "of": 1714,
      "\")": 1715,
      "ilar": 1716,
      "by": 1717,
      "ised": 1718,
      "ending": 1719,
      "\u2500\u00e1comput": 1720,
      "\u2500\u00e1areas": 1721,
      "\u2500\u00e1profess": 1722,
      "\u2500\u00e1hig": 1723,
      "hy": 1724,
      "\u2500\u00e1understanding": 1725,
      "use": 1726,
      "alk": 1727,
      "\u2500\u00e1cause": 1728,
      "\u2500\u00e1lik": 1729,
      "\u2500\u00e1able": 1730,
      "\u2500\u00e1toward": 1731,
      "\u2500\u00e1problem": 1732,
      "\u2500\u00e1ter": 1733,
      "\u2500\u00e1systems": 1734,
      "\u2500\u00e1bro": 1735,
      "\u2500\u00e1associ": 1736,
      "\u2500\u00e1view": 1737,
      "aster": 1738,
      "\u2500\u00e1major": 1739,
      "\u2500\u00e1course": 1740,
      "ument": 1741,
      "://": 1742,
      "\u2500\u00e1model": 1743,
      "yn": 1744,
      "\u2500\u00e1else": 1745,
      "\u2500\u00e1prevent": 1746,
      "ole": 1747,
      "\u2500\u00e1invest": 1748,
      "\u2500\u00e1Im": 1749,
      "],": 1750,
      "ilities": 1751,
      "\u2500\u00e1arg": 1752,
      "ended": 1753,
      "ER": 1754,
      "\u2500\u00e1intern": 1755,
      "ably": 1756,
      "\u2500\u00e1press": 1757,
      "\u2500\u00e1==": 1758,
      "\u2500\u00e1hard": 1759,
      "idd": 1760,
      "\u2500\u00e1line": 1761,
      "ights": 1762,
      "\u2500\u00e1tool": 1763,
      "ooks": 1764,
      "\u2500\u00e1relations": 1765,
      "not": 1766,
      "\u2500\u00e1special": 1767,
      "ones": 1768,
      "osed": 1769,
      "\u2500\u00e1available": 1770,
      "\u2500\u00e1consider": 1771,
      "\u2500\u00e1species": 1772,
      "\u2500\u00e1community": 1773,
      "\u2500\u00e1future": 1774,
      "\u2500\u00e1comb": 1775,
      "\u2500\u00e1behav": 1776,
      "\u2500\u00e1Z": 1777,
      "ggest": 1778,
      "\u2500\u00e1applic": 1779,
      "What": 1780,
      "sw": 1781,
      "\u2500\u00e1natural": 1782,
      "\u2500\u00e1plant": 1783,
      "\u2500\u00e1complex": 1784,
      "ams": 1785,
      "\u2500\u00e1experience": 1786,
      "ina": 1787,
      "cul": 1788,
      "\u2500\u00e1language": 1789,
      "though": 1790,
      "\u2500\u00e1role": 1791,
      "\u2500\u00e1x": 1792,
      "\u2500\u00e1until": 1793,
      "\u2500\u00e1rele": 1794,
      "\u2500\u00e1respons": 1795,
      "\u2500\u00e1second": 1796,
      "\u2500\u00e1United": 1797,
      "\u2500\u00e1country": 1798,
      "\":": 1799,
      "\u2500\u00e1men": 1800,
      "\u2500\u00e1polit": 1801,
      "iting": 1802,
      "face": 1803,
      "\u2500\u00e1rece": 1804,
      "\u2500\u00e1young": 1805,
      "\u2500\u00e1works": 1806,
      "aring": 1807,
      "rag": 1808,
      "acy": 1809,
      "aps": 1810,
      "\u2500\u00e1always": 1811,
      "\u2500\u00e1What": 1812,
      "aces": 1813,
      "\u2500\u00e1At": 1814,
      "obal": 1815,
      "\u2500\u00e1Or": 1816,
      "asing": 1817,
      "ask": 1818,
      "ope": 1819,
      "\u2500\u00e1suggest": 1820,
      "osp": 1821,
      "\u2500\u00e1exist": 1822,
      "urope": 1823,
      "data": 1824,
      "\u2500\u00e1levels": 1825,
      "\u2500\u00e1indust": 1826,
      "icult": 1827,
      "\u2500\u00e1problems": 1828,
      "izing": 1829,
      "\u2500\u00e1put": 1830,
      "\u2500\u00e1mar": 1831,
      "ained": 1832,
      "\u2500\u00e1step": 1833,
      "\u2500\u00e1today": 1834,
      "\u2500\u00e1technology": 1835,
      "\u2500\u00e1given": 1836,
      "\u2500\u00e1strong": 1837,
      "\u2500\u00e1little": 1838,
      "\u2500\u00e1God": 1839,
      "\u2500\u00e1sw": 1840,
      "\u2500\u00e1\u251c\u00f3\u2500\u00f3\u2500\u2562": 1841,
      "\u2500\u00e1cir": 1842,
      "\u2500\u00e1character": 1843,
      "\u2500\u00e1results": 1844,
      "\u2500\u00e1range": 1845,
      "ek": 1846,
      "istic": 1847,
      "\u2500\u00e1That": 1848,
      "\u2500\u00e1treatment": 1849,
      "\u2500\u00e1age": 1850,
      "ored": 1851,
      "reen": 1852,
      "\u2500\u00e1ways": 1853,
      "ysis": 1854,
      "cur": 1855,
      "ths": 1856,
      "ators": 1857,
      "\u2500\u00e1necess": 1858,
      "\u2500\u00e1obs": 1859,
      "\u2500\u00e1vol": 1860,
      "\u2500\u00e1business": 1861,
      "lement": 1862,
      "\u2500\u00e1book": 1863,
      "omm": 1864,
      "selves": 1865,
      "ont": 1866,
      "\u2500\u00e1next": 1867,
      "ivity": 1868,
      "\u2500\u00e1far": 1869,
      "\u2500\u00e1percent": 1870,
      "\u2500\u00e1larg": 1871,
      "\u2500\u00e1determ": 1872,
      "ik": 1873,
      "\u2500\u00e1flow": 1874,
      "orts": 1875,
      "\u2500\u00e1four": 1876,
      "\u2500\u00e1dem": 1877,
      "ither": 1878,
      "\u2500\u00e1influ": 1879,
      "\u2500\u00e1represent": 1880,
      "co": 1881,
      "We": 1882,
      "aging": 1883,
      "thing": 1884,
      "\u2500\u00e1$": 1885,
      "orld": 1886,
      "\u2500\u00e1similar": 1887,
      "\u2500\u00e1education": 1888,
      "apt": 1889,
      "\u2500\u00e1short": 1890,
      "\u2500\u00e1working": 1891,
      "\u2500\u00e1z": 1892,
      "ables": 1893,
      "\u2500\u00e1challeng": 1894,
      "\u2500\u00e1essential": 1895,
      "\u2500\u00e1past": 1896,
      "\u2500\u00e1Af": 1897,
      "\u2500\u00e1space": 1898,
      "\u2500\u00e1ill": 1899,
      "\u2500\u00e1sing": 1900,
      "lab": 1901,
      "\u2500\u00e1amount": 1902,
      "\u2500\u00e1**": 1903,
      "\u2500\u00e1free": 1904,
      "ym": 1905,
      "etimes": 1906,
      "atures": 1907,
      "side": 1908,
      "\u2500\u00e1concept": 1909,
      "\u2500\u00e1Europe": 1910,
      "\u2500\u00e1heart": 1911,
      "atory": 1912,
      "\u2500\u00e1war": 1913,
      "\u2500\u00e1vir": 1914,
      "ured": 1915,
      "\u2500\u00e1later": 1916,
      "\u2500\u00e1bir": 1917,
      "\u2500\u00e1States": 1918,
      "\u2500\u00e1author": 1919,
      "\u2500\u00e1conditions": 1920,
      "\u2500\u00e1says": 1921,
      "duct": 1922,
      "\u2500\u00e1needs": 1923,
      "\u2500\u00e1words": 1924,
      "\u2500\u00e1net": 1925,
      "\u2500\u00e1Christ": 1926,
      "\u2500\u00e8\u2500\u00e1\u2500\u00e1\u2500\u00e1\u2500\u00e1\u2500\u00e1\u2500\u00e1\u2500\u00e1\u2500\u00e1\u2500\u00e1\u2500\u00e1\u2500\u00e1\u2500\u00e1\u2500\u00e1\u2500\u00e1\u2500\u00e1\u2500\u00e1\u2500\u00e1\u2500\u00e1\u2500\u00e1": 1927,
      "\u2500\u00e1give": 1928,
      "\u2500\u00e1With": 1929,
      "\u2500\u00e1init": 1930,
      "\u2500\u00e1Te": 1931,
      "eter": 1932,
      "NA": 1933,
      "\u2500\u00e1Be": 1934,
      "une": 1935,
      "icro": 1936,
      "If": 1937,
      "\u2500\u00e1mov": 1938,
      "af": 1939,
      "onse": 1940,
      "\u2500\u00e1paper": 1941,
      "\u2500\u00e1kind": 1942,
      "\u2500\u00e1None": 1943,
      "vious": 1944,
      "\u2500\u00e1mind": 1945,
      "ires": 1946,
      "\u2500\u00e1improve": 1947,
      "\u2500\u00e1polic": 1948,
      "\u2500\u00e1ey": 1949,
      "inc": 1950,
      "ule": 1951,
      "\u2500\u00e1resources": 1952,
      "\u2500\u00e1having": 1953,
      "\u2500\u00e1skills": 1954,
      "\u2500\u00e1field": 1955,
      "\u2500\u00e1begin": 1956,
      "\u2500\u00e1consum": 1957,
      "\u2500\u00e1parent": 1958,
      "\u2500\u00e1expect": 1959,
      "\u2500\u00e1cells": 1960,
      "\u2500\u00e1rad": 1961,
      "\u2500\u00e1question": 1962,
      "\u2500\u00e1One": 1963,
      "\u2500\u00e1teac": 1964,
      "\u2500\u00e1pred": 1965,
      "\u2500\u00e1tradition": 1966,
      "\u2500\u00e1knowledge": 1967,
      "ibility": 1968,
      "``": 1969,
      "ours": 1970,
      "\u2500\u00e1changes": 1971,
      "\u2500\u00e1appear": 1972,
      "\u2500\u00e1jour": 1973,
      "\u2500\u00e1issues": 1974,
      "\u2500\u00e1estab": 1975,
      "lection": 1976,
      "\u2500\u00e1story": 1977,
      "\u2500\u00e1Can": 1978,
      "ili": 1979,
      "\u2500\u00e1upon": 1980,
      "\u2500\u00e1mot": 1981,
      "\u2500\u00e1concern": 1982,
      "pecially": 1983,
      "\u2500\u00e1require": 1984,
      "\u2500\u00e1On": 1985,
      "\u2500\u00e1relationship": 1986,
      "\u2500\u00e1strateg": 1987,
      "arget": 1988,
      "etic": 1989,
      "\u2500\u00e1difficult": 1990,
      "\u2500\u00e1whether": 1991,
      "ee": 1992,
      "\u2500\u00e1log": 1993,
      "ening": 1994,
      "\u2500\u00e1types": 1995,
      "\u2500\u00e1prim": 1996,
      "\u2500\u00e1sens": 1997,
      "\u2500\u00e1ask": 1998,
      "ush": 1999,
      "\u2500\u00e1temper": 2000,
      "\u2500\u00e1enough": 2001,
      "ales": 2002,
      "\u2500\u00e1likely": 2003,
      "\u2500\u00e1record": 2004,
      "iple": 2005,
      "\u2500\u00e1Inst": 2006,
      "\u2500\u00e1usually": 2007,
      "ger": 2008,
      "\u2500\u00e1days": 2009,
      "nal": 2010,
      "inking": 2011,
      "\u2500\u00e1histor": 2012,
      "apter": 2013,
      "\u2500\u00e1address": 2014,
      "\u2500\u00e1Some": 2015,
      "let": 2016,
      "import": 2017,
      "\u2500\u00e1All": 2018,
      "aching": 2019,
      "How": 2020,
      "chie": 2021,
      "\u2500\u00e1makes": 2022,
      "\u2500\u00e1opportun": 2023,
      "\u2500\u00e1Cent": 2024,
      "\u2500\u00e1away": 2025,
      "...": 2026,
      "\u2500\u00e1norm": 2027,
      "\u2500\u00e1sum": 2028,
      "\u2500\u00e1questions": 2029,
      "\u2500\u00e1further": 2030,
      "====": 2031,
      "iction": 2032,
      "\u2500\u00e1researc": 2033,
      "son": 2034,
      "ruction": 2035,
      "oney": 2036,
      "\u2500\u00e1protect": 2037,
      "\u2500\u00e1US": 2038,
      "ising": 2039,
      "omes": 2040,
      "ried": 2041,
      "\u2500\u00e1ever": 2042,
      "cient": 2043,
      "ware": 2044,
      "\u2500\u00e1going": 2045,
      "ffic": 2046,
      "\u2500\u00e1dig": 2047,
      "\u2500\u00e1individuals": 2048,
      "\u2500\u00e1left": 2049,
      "\u2500\u00e1path": 2050,
      "\u2500\u00e1account": 2051,
      "aken": 2052,
      "oot": 2053,
      "ibr": 2054,
      "ued": 2055,
      "\u2500\u00e1i": 2056,
      "\u2500\u00e1employ": 2057,
      "type": 2058,
      "ification": 2059,
      "\u2500\u00e1lay": 2060,
      "\u2500\u00e1higher": 2061,
      "AT": 2062,
      "\u2500\u00e1growth": 2063,
      "class": 2064,
      "\u2500\u00e1ur": 2065,
      "\u2500\u00e1big": 2066,
      "\u2500\u00e1<": 2067,
      "To": 2068,
      "='": 2069,
      "\u2500\u00e1century": 2070,
      "\u2500\u00e1National": 2071,
      "\u2500\u00e1collect": 2072,
      "\u2500\u00e1full": 2073,
      "ney": 2074,
      "\u2500\u00e1countries": 2075,
      "\u2500\u00e1super": 2076,
      "._": 2077,
      "amm": 2078,
      "\u2500\u00e1Afric": 2079,
      "aves": 2080,
      "\u2500\u00e1increase": 2081,
      "\u2500\u00e1situ": 2082,
      "Ch": 2083,
      "\u2500\u00e1connect": 2084,
      "rans": 2085,
      "plic": 2086,
      "\u2500\u00e1fund": 2087,
      "ooking": 2088,
      "An": 2089,
      "\u2500\u00e1sure": 2090,
      "\u2500\u00e1stat": 2091,
      "\u2500\u00e1science": 2092,
      "\u2500\u00e1never": 2093,
      "\u2500\u00e1recogn": 2094,
      "erence": 2095,
      "\u2500\u00e1describ": 2096,
      "ES": 2097,
      "\u2500\u00e1exc": 2098,
      "\u2500\u00e1physical": 2099,
      "\u2500\u00e1cy": 2100,
      "\u2500\u00e1Med": 2101,
      "ohn": 2102,
      "\u2500\u00e1side": 2103,
      "add": 2104,
      "reg": 2105,
      "\u2500\u00e1brain": 2106,
      "\u2500\u00e1however": 2107,
      "arl": 2108,
      "\u2500\u00e1plants": 2109,
      "arr": 2110,
      "verse": 2111,
      "\u2500\u00e1death": 2112,
      "IN": 2113,
      "\u2500\u00e1Bl": 2114,
      "\u2500\u00e1term": 2115,
      "\u2500\u00e1unique": 2116,
      "\u2500\u00e1especially": 2117,
      "\u2500\u00e1ground": 2118,
      "\u2500\u00e1groups": 2119,
      "\u2500\u00e1above": 2120,
      "\u2500\u00e1event": 2121,
      "There": 2122,
      "\u2500\u00e1activities": 2123,
      "\u2500\u00e1least": 2124,
      "\u2500\u00e1maintain": 2125,
      "\u2500\u00e1throughout": 2126,
      "\u2500\u00e1contain": 2127,
      "########": 2128,
      "test": 2129,
      "most": 2130,
      "ault": 2131,
      "elling": 2132,
      "\u2500\u00e1Fr": 2133,
      "\u2500\u00e1particip": 2134,
      "agine": 2135,
      "\u2500\u00e1emb": 2136,
      "ilt": 2137,
      "\u2500\u00e1subject": 2138,
      "\u2500\u00e1sound": 2139,
      "alse": 2140,
      "\u2500\u00e1near": 2141,
      "\u2500\u00e1achie": 2142,
      "\u2500\u00e1personal": 2143,
      "edi": 2144,
      "sych": 2145,
      "utions": 2146,
      "\u2500\u00e1Sc": 2147,
      "\u2500\u00e1modern": 2148,
      "ready": 2149,
      "lying": 2150,
      "\u2500\u00e1affect": 2151,
      "sequ": 2152,
      "file": 2153,
      "ON": 2154,
      "\u2500\u00e1population": 2155,
      "\u2500\u00e1dam": 2156,
      "\u2500\u00e1studies": 2157,
      "\u2500\u00e1neg": 2158,
      "\u2500\u00e1really": 2159,
      "fact": 2160,
      "\u2500\u00e1rather": 2161,
      "ptoms": 2162,
      "\u2500\u00e1became": 2163,
      "ison": 2164,
      "\u2500\u00e1effects": 2165,
      "\u2500\u00e1reason": 2166,
      "rug": 2167,
      "rect": 2168,
      "ils": 2169,
      "aim": 2170,
      "ites": 2171,
      "mod": 2172,
      "\u2500\u00e1cancer": 2173,
      "\u2500\u00e1quality": 2174,
      "\u2500\u00e1relig": 2175,
      "\u2500\u00e1liter": 2176,
      "\u2500\u00e1nature": 2177,
      "asc": 2178,
      "\u2500\u00e1`": 2179,
      "\u2500\u00e1practice": 2180,
      "rel": 2181,
      "illed": 2182,
      "\u2500\u00e1chem": 2183,
      "\u2500\u00e1loss": 2184,
      "atives": 2185,
      "nces": 2186,
      "\u2500\u00e1Brit": 2187,
      "\u2500\u00e1associated": 2188,
      "unt": 2189,
      "ises": 2190,
      "\u2500\u00e1pattern": 2191,
      "att": 2192,
      "For": 2193,
      "\u2500\u00e1building": 2194,
      "issue": 2195,
      "\u2500\u00e1answ": 2196,
      "roll": 2197,
      "\u2500\u00e1stre": 2198,
      "\u2500\u00e1cases": 2199,
      "\u2500\u00e1patients": 2200,
      "ample": 2201,
      "\u2500\u00e1detail": 2202,
      "\u2500\u00e1size": 2203,
      "\u2500\u00e1cho": 2204,
      "\u2500\u00e1hold": 2205,
      "\u2500\u00e1someone": 2206,
      "\u2500\u00e1vers": 2207,
      "\u2500\u00e1lower": 2208,
      "alf": 2209,
      "\u2500\u00e1general": 2210,
      "AS": 2211,
      "\u2500\u00e1factors": 2212,
      "overed": 2213,
      "enn": 2214,
      "\u2500\u00e1million": 2215,
      "\u2500\u00e1comes": 2216,
      "\u2500\u00e1explore": 2217,
      "opy": 2218,
      "Al": 2219,
      "\u2500\u00e1meet": 2220,
      "\u2500\u00e1already": 2221,
      "\u2500\u00e1student": 2222,
      "eds": 2223,
      "\u2500\u00e1global": 2224,
      "rams": 2225,
      "\u2500\u00e1doc": 2226,
      "\".": 2227,
      "oman": 2228,
      "\u2500\u00e1word": 2229,
      "ene": 2230,
      "ok": 2231,
      "\u2500\u00e1simple": 2232,
      "inary": 2233,
      "\u2500\u00e1regard": 2234,
      "ript": 2235,
      "\u2500\u00e1nut": 2236,
      "mb": 2237,
      "ID": 2238,
      "\u2500\u00e1introdu": 2239,
      "\u2500\u00e1city": 2240,
      "new": 2241,
      "\u2500\u00e1living": 2242,
      "augh": 2243,
      "\u2500\u00e1single": 2244,
      "\u2500\u00e1prob": 2245,
      "iques": 2246,
      "\u2500\u00e1indic": 2247,
      "\u2500\u00e1abs": 2248,
      "\u2500\u00e1members": 2249,
      "\u2500\u00e1Le": 2250,
      "\u2500\u00e1wind": 2251,
      "verage": 2252,
      "\u2500\u00e1themselves": 2253,
      "\u2500\u00e1materials": 2254,
      "])": 2255,
      "time": 2256,
      "\u2500\u00e1source": 2257,
      "\u2500\u00e1towards": 2258,
      "ips": 2259,
      "\u2500\u00e1World": 2260,
      "\u2500\u00e1phot": 2261,
      "\u2500\u00e1production": 2262,
      "\u2500\u00e1observ": 2263,
      "ival": 2264,
      "\u2500\u00e1respect": 2265,
      "\u2500\u00e1dom": 2266,
      "\u2500\u00e1either": 2267,
      "\u2500\u00e1once": 2268,
      "\u2500\u00e1seen": 2269,
      "rad": 2270,
      "\u2500\u00e1deg": 2271,
      "\u2500\u00e1/": 2272,
      "\u2500\u00e1X": 2273,
      "anced": 2274,
      "\u2500\u00e1thought": 2275,
      "\u2500\u00e1deep": 2276,
      "ring": 2277,
      "\u2500\u00e1Germ": 2278,
      "ott": 2279,
      "ung": 2280,
      "leep": 2281,
      "\u2500\u00e1ut": 2282,
      "col": 2283,
      "inter": 2284,
      "AR": 2285,
      "iol": 2286,
      "\u2500\u00e1War": 2287,
      "\u2500\u00e1job": 2288,
      "\u2500\u00e1according": 2289,
      "\u2500\u00e1pay": 2290,
      "\u2500\u00e1house": 2291,
      "ley": 2292,
      "\u2500\u00e1researchers": 2293,
      "\u2500\u00e1done": 2294,
      "org": 2295,
      "ae": 2296,
      "\u2500\u00e1emot": 2297,
      "\u2500\u00e1interact": 2298,
      "\u2500\u00e1team": 2299,
      "hern": 2300,
      "\u2500\u00e1file": 2301,
      "ened": 2302,
      "\u2500\u00e1ver": 2303,
      "\u2500\u00e1cut": 2304,
      "rict": 2305,
      "\u2500\u00e1She": 2306,
      "ird": 2307,
      "enc": 2308,
      "\u2500\u00e1required": 2309,
      "ules": 2310,
      "\u2500\u00e1helps": 2311,
      "\u2500\u00e1created": 2312,
      "\u2500\u00e1activity": 2313,
      "adem": 2314,
      "earch": 2315,
      "'re": 2316,
      "ipp": 2317,
      "\u2500\u00e1analysis": 2318,
      "\u2500\u00e1fail": 2319,
      "\u2500\u00e1products": 2320,
      "\u2500\u00e1English": 2321,
      "\u2500\u00e1John": 2322,
      "epend": 2323,
      "\u2500\u00e1Comm": 2324,
      "\u2500\u00e1aspect": 2325,
      "hold": 2326,
      "\u2500\u00e1engine": 2327,
      "\u2500\u00e1integ": 2328,
      "\u2500\u00e1online": 2329,
      "\u2500\u00e1live": 2330,
      "itud": 2331,
      "\u2500\u00e1fall": 2332,
      "\u2500\u00e1np": 2333,
      "my": 2334,
      "\u2500\u00e1fig": 2335,
      "\u2500\u00e1symptoms": 2336,
      "\u2500\u00e1methods": 2337,
      "fully": 2338,
      "\u2500\u00e1frequ": 2339,
      "\u2500\u00e1medical": 2340,
      "\u2500\u00e1lot": 2341,
      "\u2500\u00e1market": 2342,
      "\u2500\u00e1management": 2343,
      "fer": 2344,
      "go": 2345,
      "otes": 2346,
      "ler": 2347,
      "\u2500\u00e1tot": 2348,
      "\u2500\u00e1effic": 2349,
      "\u2500\u00e1needed": 2350,
      "\u2500\u00e1Go": 2351,
      "oose": 2352,
      "\u2500\u00e1action": 2353,
      "fl": 2354,
      "\u2500\u00e1animals": 2355,
      "\u2500\u00e1political": 2356,
      "\u2500\u00e1pie": 2357,
      "\u2500\u00e1circ": 2358,
      "\u2500\u00e1idea": 2359,
      "ivil": 2360,
      "place": 2361,
      "\u2500\u00e1sent": 2362,
      "rand": 2363,
      "\u2500\u00e1evidence": 2364,
      "\u2500\u00e1quick": 2365,
      "\u2500\u00e1flu": 2366,
      "\u2500\u00e8\u2500\u00e1\u2500\u00e1\u2500\u00e1\u2500\u00e1": 2367,
      "\u2500\u00e1Stud": 2368,
      "\u2500\u00e1reduce": 2369,
      "\u2500\u00e1target": 2370,
      "\u2500\u00e1necessary": 2371,
      "aries": 2372,
      "\u2500\u00e1break": 2373,
      "\u2500\u00e1society": 2374,
      "\u2500\u00e1soft": 2375,
      "\u2500\u00e1surface": 2376,
      "\u2500\u00e1recomm": 2377,
      "\u2500\u00e1popular": 2378,
      "\u2500\u00e1Health": 2379,
      "\u2500\u00e1color": 2380,
      "\u2500\u00e1ensure": 2381,
      "\u2500\u00e1red": 2382,
      "\u2500\u00e1Pr": 2383,
      "way": 2384,
      "\u2500\u00e1writing": 2385,
      "load": 2386,
      "\u2500\u00e1rights": 2387,
      "\u2500\u00e1sun": 2388,
      "\u2500\u00e1mass": 2389,
      "\u2500\u00e1actually": 2390,
      "\u2500\u00e1parts": 2391,
      "lt": 2392,
      "key": 2393,
      "\u2500\u00e1mess": 2394,
      "\u2500\u00e1seem": 2395,
      "\u2500\u00e1values": 2396,
      "\u2500\u00e1lives": 2397,
      "clusion": 2398,
      "\u2500\u00e1port": 2399,
      "oph": 2400,
      "sp": 2401,
      "list": 2402,
      "bon": 2403,
      "ze": 2404,
      "\u2500\u00e1May": 2405,
      "\u2500\u00e1sometimes": 2406,
      "yle": 2407,
      "\u2500\u00e1yet": 2408,
      "\u2500\u00e1offic": 2409,
      "chan": 2410,
      "reng": 2411,
      "\u2500\u00e1climate": 2412,
      "ulations": 2413,
      "cial": 2414,
      "\u2500\u00e1entire": 2415,
      "aling": 2416,
      "\u2500\u00e1ge": 2417,
      "\u2500\u00e1arr": 2418,
      "\u2500\u00e1share": 2419,
      "\u2500\u00e1increased": 2420,
      "\u2500\u00e1rate": 2421,
      "\u2500\u00e1came": 2422,
      "ystem": 2423,
      "\u2500\u00e1approach": 2424,
      "oration": 2425,
      "\u2500\u00e1response": 2426,
      "When": 2427,
      "\u2500\u00e1friends": 2428,
      "\u2500\u00e1communities": 2429,
      "\u2500\u00e1effective": 2430,
      "\u2500\u00e1sal": 2431,
      "ma": 2432,
      "\u2500\u00e1provides": 2433,
      "\u2500\u00e1dest": 2434,
      "\u2500\u00e1stress": 2435,
      "\u2500\u00e1encou": 2436,
      "\u2500\u00e1clear": 2437,
      "\u2500\u00e1Am": 2438,
      "\u2500\u00e1Ass": 2439,
      "ustom": 2440,
      "\u2500\u00e1below": 2441,
      "erous": 2442,
      "\u2500\u00e1image": 2443,
      "\u2500\u00e1whole": 2444,
      "\u2500\u00e1While": 2445,
      "\u2500\u00e1doct": 2446,
      "\u2500\u00e1Gen": 2447,
      "\u2500\u00e1national": 2448,
      "\u2500\u00e1subst": 2449,
      "aged": 2450,
      "ublic": 2451,
      "\u2500\u00e1developed": 2452,
      "ply": 2453,
      "olic": 2454,
      "\u2500\u00e1meaning": 2455,
      "\u2500\u00e1pressure": 2456,
      "\u2500\u00e1arch": 2457,
      "\u2500\u00e1healthy": 2458,
      "erve": 2459,
      "OR": 2460,
      "ender": 2461,
      "\u2500\u00e1exerc": 2462,
      "idered": 2463,
      "II": 2464,
      "\u2500\u00e1services": 2465,
      "\u2500\u00e1events": 2466,
      "urch": 2467,
      "\u2500\u00e1context": 2468,
      "osis": 2469,
      "\u2500\u00e1ability": 2470,
      "\u2500\u00e1%": 2471,
      "acks": 2472,
      "\u2500\u00e1taken": 2473,
      "\u2500\u00e1increasing": 2474,
      "\u2500\u00e1continue": 2475,
      "ches": 2476,
      "\u2500\u00e1music": 2477,
      "\u2500\u00e1money": 2478,
      "ores": 2479,
      "lex": 2480,
      "\u2500\u00e1)": 2481,
      "\u2500\u00e1avoid": 2482,
      "\u2500\u00e1_": 2483,
      "\u2500\u00e1related": 2484,
      "\u2500\u00e1Ab": 2485,
      "ttp": 2486,
      "acc": 2487,
      "\u2500\u00e1compon": 2488,
      "\u2500\u00e1instead": 2489,
      "\u2500\u00e1adult": 2490,
      "nov": 2491,
      "\u2500\u00e1emerg": 2492,
      "\u2500\u00e1America": 2493,
      "atter": 2494,
      "istance": 2495,
      "\u2500\u00e1states": 2496,
      "eration": 2497,
      "\u2500\u00e1taking": 2498,
      "wh": 2499,
      "\u2500\u00e1considered": 2500,
      "light": 2501,
      "ctions": 2502,
      "\u2500\u00e1Dr": 2503,
      "\u2500\u00e1|": 2504,
      "\u2500\u00e1tell": 2505,
      "\u2500\u00e1Man": 2506,
      "\u2500\u00e1Int": 2507,
      "ront": 2508,
      "oon": 2509,
      "\u2500\u00e1Intern": 2510,
      "itation": 2511,
      "ength": 2512,
      "\u2500\u00e1Ge": 2513,
      "\u2500\u00e1micro": 2514,
      "imately": 2515,
      "Ex": 2516,
      "\u2500\u00e1culture": 2517,
      "\u2500\u00e1allows": 2518,
      "ges": 2519,
      "amed": 2520,
      "\u2500\u00e1ann": 2521,
      "ume": 2522,
      "\u2500\u00e1review": 2523,
      "\u2500\u00e1article": 2524,
      "\u2500\u00e1mach": 2525,
      "\u2500\u00e1cannot": 2526,
      "\u2500\u00e1thera": 2527,
      "\u2500\u00e1Sci": 2528,
      "\u2500\u00e1challenges": 2529,
      "\u2500\u00e1site": 2530,
      "\u2500\u00e1five": 2531,
      "\u2500\u00e1priv": 2532,
      "play": 2533,
      "\u2500\u00e1training": 2534,
      "hing": 2535,
      "\u2500\u00e1economic": 2536,
      "\u2500\u00e1white": 2537,
      "ump": 2538,
      "\u2500\u00e1reading": 2539,
      "\u2500\u00e1Cal": 2540,
      "part": 2541,
      "based": 2542,
      "\u2500\u00e1bal": 2543,
      "\u2500\u00e1techniques": 2544,
      "\u2500\u00e1check": 2545,
      "\u2500\u00e1environmental": 2546,
      "\u2500\u00e1drug": 2547,
      "\u2500\u00e1position": 2548,
      "\u2500\u00e1tools": 2549,
      "\u2500\u00e1After": 2550,
      "irm": 2551,
      "\u2500\u00e1mor": 2552,
      "\u2500\u00e1Em": 2553,
      "ai": 2554,
      "\u2500\u00e1behavior": 2555,
      "\u2500\u00e1traditional": 2556,
      "Con": 2557,
      "\u2500\u00e1Cont": 2558,
      "order": 2559,
      "\u2500\u00e1except": 2560,
      "\u2500\u00e1harm": 2561,
      "utes": 2562,
      "init": 2563,
      "ribute": 2564,
      "\u2500\u00e1clos": 2565,
      "ari": 2566,
      "\u2500\u00e1doing": 2567,
      "aced": 2568,
      "hib": 2569,
      "\u2500\u00e1assess": 2570,
      "het": 2571,
      "iment": 2572,
      "\u2500\u00e1everyone": 2573,
      "\u2500\u00e1skin": 2574,
      "iddle": 2575,
      "amin": 2576,
      "\u2500\u00e1clean": 2577,
      "come": 2578,
      "like": 2579,
      "\u2500\u00e1compet": 2580,
      "\u2500\u00e1itself": 2581,
      "\u2500\u00e1South": 2582,
      "\u2500\u00e1computer": 2583,
      "aving": 2584,
      "\u2500\u00e1began": 2585,
      "oes": 2586,
      "\u2500\u00e1published": 2587,
      "\u2500\u00e1sense": 2588,
      "eed": 2589,
      "\u2500\u00e1App": 2590,
      "\u2500\u00e1Earth": 2591,
      "\u2500\u00e1streng": 2592,
      "uck": 2593,
      "pose": 2594,
      "\u2500\u00e1react": 2595,
      "But": 2596,
      "aches": 2597,
      "ey": 2598,
      "esc": 2599,
      "ops": 2600,
      "\u2500\u00e1North": 2601,
      "pri": 2602,
      "pid": 2603,
      "mber": 2604,
      "\u2500\u00e1week": 2605,
      "\u2500\u00e1love": 2606,
      "astic": 2607,
      "itor": 2608,
      "\u2500\u00e1critical": 2609,
      "iet": 2610,
      "ype": 2611,
      "\u2500\u00e1remain": 2612,
      "\u2500\u00e1weight": 2613,
      "\u2500\u00e1demon": 2614,
      "fig": 2615,
      "ground": 2616,
      "know": 2617,
      "\u2500\u00e1la": 2618,
      "\u2500\u00e1condition": 2619,
      "dom": 2620,
      "\u2500\u00e1measure": 2621,
      "\u2500\u00e1Hist": 2622,
      "empt": 2623,
      "\u2500\u00e1benefits": 2624,
      "ele": 2625,
      "\u2500\u00e1offer": 2626,
      "\u2500\u00e1content": 2627,
      "aily": 2628,
      "\u2500\u00e1true": 2629,
      "\u2500\u00e1accept": 2630,
      "\u2500\u00e1matter": 2631,
      "\u2500\u00e1black": 2632,
      "\u2500\u00e1separ": 2633,
      "\u2500\u00e1draw": 2634,
      "\u2500\u00e1bring": 2635,
      "\u2500\u00e1rev": 2636,
      "\u2500\u00e1took": 2637,
      "\u2500\u00e1medic": 2638,
      "isc": 2639,
      "\u2500\u00e1prote": 2640,
      "joy": 2641,
      "\u2500\u00e1cultural": 2642,
      "\u2500\u00e1sat": 2643,
      "\u2500\u00e1cat": 2644,
      "\u2500\u00e1feed": 2645,
      "\u2500\u00e1Act": 2646,
      "\u2500\u00e1experiences": 2647,
      "\u2500\u00e1instance": 2648,
      "\u2500\u00e1regular": 2649,
      "\u2500\u00e1Aust": 2650,
      "cont": 2651,
      "\u2500\u00e1parents": 2652,
      "\u2500\u00e1cru": 2653,
      "\u2500\u00e1green": 2654,
      "\u2500\u00e1hab": 2655,
      "\u2500\u00e1terms": 2656,
      "itary": 2657,
      "bl": 2658,
      "istics": 2659,
      "pite": 2660,
      "args": 2661,
      "\u2500\u00e1conduct": 2662,
      "raft": 2663,
      "\u2500\u00e1oil": 2664,
      "\u2500\u00e1sust": 2665,
      "\u2500\u00e1implement": 2666,
      "\u2500\u00e1express": 2667,
      "yl": 2668,
      "\u2500\u00e1identify": 2669,
      "\u2500\u00e1capt": 2670,
      "=\"": 2671,
      "\u2500\u00e1previous": 2672,
      "ields": 2673,
      "\u2500\u00e1attention": 2674,
      "avor": 2675,
      "back": 2676,
      ".)": 2677,
      "\u2500\u00e1structure": 2678,
      "vere": 2679,
      "EN": 2680,
      "icles": 2681,
      "equ": 2682,
      "You": 2683,
      "\u2500\u00e1stories": 2684,
      "oll": 2685,
      "\u2500\u00e1etc": 2686,
      "itution": 2687,
      "\u2500\u00e1dat": 2688,
      "orks": 2689,
      "\u2500\u00e1produce": 2690,
      "inf": 2691,
      "text": 2692,
      "\u2500\u00e1Gu": 2693,
      "hood": 2694,
      "\u2500\u00e1region": 2695,
      "Now": 2696,
      "rown": 2697,
      "\u2500\u00e1fish": 2698,
      "head": 2699,
      "\u2500\u00e1demonstr": 2700,
      "\u2500\u00e1multiple": 2701,
      "\u2500\u00e1select": 2702,
      "Wh": 2703,
      "\u2500\u00e1months": 2704,
      "One": 2705,
      "ift": 2706,
      "ging": 2707,
      "artment": 2708,
      "ername": 2709,
      "\u2500\u00e1sex": 2710,
      "\u2500\u00e1provided": 2711,
      "ister": 2712,
      "eb": 2713,
      "\u2500\u00e1diet": 2714,
      "\u2500\u00e1face": 2715,
      "alu": 2716,
      "\u2500\u00e1forms": 2717,
      "\u2500\u00e1practices": 2718,
      "\u2500\u00e1total": 2719,
      "\u2500\u00e1Rep": 2720,
      "IS": 2721,
      "\u2500\u00e1minim": 2722,
      "\u2500\u00e1unit": 2723,
      "\u2500\u00e1designed": 2724,
      "\u2500\u00e1suff": 2725,
      "uel": 2726,
      "\u2500\u00e1company": 2727,
      "\u2500\u00e1elements": 2728,
      "\u2500\u00e1industry": 2729,
      "isions": 2730,
      "\u2500\u00e1positive": 2731,
      "ror": 2732,
      "\u2500\u00e1creating": 2733,
      "\u2500\u00e1consist": 2734,
      "ided": 2735,
      "\u2500\u00e1His": 2736,
      "\u2500\u00e1hours": 2737,
      "\u2500\u00ec\u2500\u00e8": 2738,
      "\u2500\u00e1vide": 2739,
      "bo": 2740,
      "\u2500\u00e1reflect": 2741,
      "error": 2742,
      "\u2500\u00e1almost": 2743,
      "\u2500\u00e1shows": 2744,
      "\u2500\u00e1half": 2745,
      "\u2500\u00e1Su": 2746,
      "\u2500\u00e1yourself": 2747,
      "\u2500\u00e1aim": 2748,
      "\u2500\u00e1psych": 2749,
      "ows": 2750,
      "\u2500\u00e1heav": 2751,
      "ober": 2752,
      "\u2500\u00e1bar": 2753,
      "\u2500\u00e1service": 2754,
      "\u2500\u00e1particularly": 2755,
      "\u251c\u00e2\u252c\u2310": 2756,
      "ensive": 2757,
      "\u2500\u00e1__": 2758,
      "date": 2759,
      "\u2500\u00e1fat": 2760,
      "\u2500\u00e1doesn": 2761,
      "\u2500\u00e1analy": 2762,
      "\u2500\u00e1soil": 2763,
      "\u2500\u00e1schools": 2764,
      "\u2500\u00e1recent": 2765,
      "\u2500\u00e1claim": 2766,
      "\u2500\u00e1dog": 2767,
      "umn": 2768,
      "\u2500\u00e1farm": 2769,
      "\u2500\u00e1contact": 2770,
      "right": 2771,
      "\u2500\u00e1eth": 2772,
      "\u2500\u00e1involved": 2773,
      "\u2500\u00e1programs": 2774,
      "\u2500\u00e1thing": 2775,
      "ners": 2776,
      "Im": 2777,
      "\u2500\u00e1contribut": 2778,
      "\u2500\u00e1temperature": 2779,
      "ike": 2780,
      "elt": 2781,
      "\u2500\u00e1mechan": 2782,
      "\u2500\u00e1More": 2783,
      "irit": 2784,
      "\u2500\u00e1sources": 2785,
      "urs": 2786,
      "True": 2787,
      "\u2500\u00e1simply": 2788,
      "\u2500\u00e1Your": 2789,
      "[\"": 2790,
      "itle": 2791,
      "thon": 2792,
      "\u2500\u00e1commit": 2793,
      "rast": 2794,
      "\u2500\u00e1link": 2795,
      "ese": 2796,
      "hel": 2797,
      "\u2500\u00e1original": 2798,
      "arily": 2799,
      "\u2500\u00e1close": 2800,
      "\u2500\u00e1sleep": 2801,
      "\u2500\u00e1deb": 2802,
      "ming": 2803,
      "aff": 2804,
      "ccording": 2805,
      "rim": 2806,
      "\u2500\u00e1easy": 2807,
      "fil": 2808,
      "iation": 2809,
      "AN": 2810,
      "\u2500\u00e1gas": 2811,
      "\u2500\u00e1er": 2812,
      "ster": 2813,
      "\u2500\u00e1extra": 2814,
      "\u2500\u00e1enjoy": 2815,
      "ties": 2816,
      "\u2500\u00e1heat": 2817,
      "\u2500\u00e1ste": 2818,
      "\u2500\u00e1chemical": 2819,
      "\u2500\u00e1Pe": 2820,
      "\u2500\u00e1ideas": 2821,
      "\u2500\u00e1max": 2822,
      "ched": 2823,
      "\u2500\u00e1spread": 2824,
      "rage": 2825,
      "\u2500\u00e1enh": 2826,
      "\u2500\u00e1travel": 2827,
      "\u2500\u00e1Mar": 2828,
      "\u251c\u00f3\u2500\u00f3\u252c\u00aa": 2829,
      "\u2500\u00ec\u2500\u00e8\u2500\u00e1\u2500\u00e1\u2500\u00e1\u2500\u00e1\u2500\u00e1\u2500\u00e1\u2500\u00e1": 2830,
      "ription": 2831,
      "rem": 2832,
      "rs": 2833,
      "\u2500\u00e1surv": 2834,
      "rior": 2835,
      "oin": 2836,
      "\u2500\u00e1built": 2837,
      "\u2500\u00e1No": 2838,
      "\u2500\u00e1aware": 2839,
      "orpor": 2840,
      "\u2500\u00e1started": 2841,
      "\u2500\u00e1led": 2842,
      "\u2500\u00e1issue": 2843,
      "\u2500\u00e1historical": 2844,
      "vey": 2845,
      "\u2500\u00e1pict": 2846,
      "\u2500\u00e1Dep": 2847,
      "\u2500\u00e1longer": 2848,
      "\u2500\u00e1fem": 2849,
      "\u2500\u00e1Ag": 2850,
      "\u2500\u00e1performance": 2851,
      "\u2500\u00e1greater": 2852,
      "\u2500\u00e1stop": 2853,
      "\u2500\u00e1Jew": 2854,
      "\u2500\u00e1written": 2855,
      "\u2500\u00e1outside": 2856,
      "\u2500\u00e1inj": 2857,
      "\u2500\u00e1surround": 2858,
      "\u2500\u00e1models": 2859,
      "\u2500\u00e1Par": 2860,
      "porary": 2861,
      "su": 2862,
      "\u2500\u00e1York": 2863,
      "ounter": 2864,
      "ribution": 2865,
      "enced": 2866,
      "\u2500\u00e1Me": 2867,
      "ension": 2868,
      "\u2500\u00e1aud": 2869,
      "estern": 2870,
      "num": 2871,
      "\u2500\u00e1wild": 2872,
      "\u2500\u00e1compan": 2873,
      "\u2500\u00e1lands": 2874,
      "\u2500\u00e1believe": 2875,
      "\u2500\u00e1points": 2876,
      "fect": 2877,
      "rig": 2878,
      "vant": 2879,
      "].": 2880,
      "itute": 2881,
      "ography": 2882,
      "\u2500\u00e1diagn": 2883,
      "\u2500\u00e1financ": 2884,
      "\u2500\u00e1decl": 2885,
      "\u2500\u00e1beaut": 2886,
      "\u2500\u00e1correct": 2887,
      "\u2500\u00e1State": 2888,
      "ait": 2889,
      "\u2500\u00e1slow": 2890,
      "\u2500\u00e1movement": 2891,
      "\u2500\u00e1fire": 2892,
      "\u2500\u00e1behind": 2893,
      "\u2500\u00e1progress": 2894,
      "curity": 2895,
      "\u2500\u00e1threat": 2896,
      "\u2500\u00e1assert": 2897,
      "\u2500\u00e1mental": 2898,
      "\u2500\u00e1leading": 2899,
      "yond": 2900,
      "IT": 2901,
      "\u2500\u00e1media": 2902,
      "ervation": 2903,
      "\u2500\u00e1Research": 2904,
      "\u2500\u00e1books": 2905,
      "oved": 2906,
      "\u2500\u00e1scientists": 2907,
      "\u2500\u00e1communication": 2908,
      "\u2500\u00e1code": 2909,
      "\u2500\u00e1mom": 2910,
      "\u2500\u00e1ones": 2911,
      "opt": 2912,
      "\u2500\u00e1Cons": 2913,
      "\u2500\u00e1user": 2914,
      "\u2500\u00e1remember": 2915,
      "che": 2916,
      "\u2500\u00e1fram": 2917,
      "izations": 2918,
      "ronic": 2919,
      "\u2500\u00e1standard": 2920,
      "\u2500\u00e1viol": 2921,
      "eters": 2922,
      "\u2500\u00e1Co": 2923,
      "minist": 2924,
      "\u2500\u00e1uses": 2925,
      "\u2500\u00e1evalu": 2926,
      "\u2500\u00e1Canad": 2927,
      "ilies": 2928,
      "\u2500\u00e1custom": 2929,
      "\u2500\u00e1adapt": 2930,
      "So": 2931,
      "\u2500\u00e1broad": 2932,
      "\u2500\u00e1takes": 2933,
      "inating": 2934,
      "apan": 2935,
      "\u2500\u00e1altern": 2936,
      "\u2500\u00e1fru": 2937,
      "\u2500\u00e1British": 2938,
      "issions": 2939,
      "\u2500\u00e1colle": 2940,
      "\u2500\u00e1developing": 2941,
      "where": 2942,
      "ricult": 2943,
      "rate": 2944,
      "rew": 2945,
      "standing": 2946,
      "ban": 2947,
      "\u2500\u00e1ec": 2948,
      "username": 2949,
      "\u2500\u00e1safety": 2950,
      "\u2500\u00e1stay": 2951,
      "\u2500\u00e1caused": 2952,
      "\u2500\u00e8\u2500\u00e1\u2500\u00e1\u2500\u00e1\u2500\u00e1\u2500\u00e1\u2500\u00e1\u2500\u00e1\u2500\u00e1\u2500\u00e1\u2500\u00e1\u2500\u00e1\u2500\u00e1\u2500\u00e1\u2500\u00e1\u2500\u00e1\u2500\u00e1\u2500\u00e1\u2500\u00e1\u2500\u00e1\u2500\u00e1\u2500\u00e1\u2500\u00e1\u2500\u00e1\u2500\u00e1": 2953,
      "Pro": 2954,
      "\u2500\u00e1normal": 2955,
      "\u2500\u00e1daily": 2956,
      "inally": 2957,
      "ached": 2958,
      "\u2500\u00e1Let": 2959,
      "oor": 2960,
      "size": 2961,
      "ologies": 2962,
      "\u2500\u00e1appropri": 2963,
      "\u2500\u00e1wond": 2964,
      "\u2500\u00e1write": 2965,
      "\u2500\u00e1numbers": 2966,
      "\u2500\u00e1getting": 2967,
      "ades": 2968,
      "\u2500\u00e1growing": 2969,
      "reci": 2970,
      "ls": 2971,
      "\u2500\u00e1inside": 2972,
      "\u2500\u00e1humans": 2973,
      "\u2500\u00e1Car": 2974,
      "rought": 2975,
      "\u2500\u00e1six": 2976,
      "dd": 2977,
      "\u2500\u00e1includes": 2978,
      "\u2500\u00e1importance": 2979,
      "amb": 2980,
      "\u2500\u00e1causes": 2981,
      "ufact": 2982,
      "\u2500\u00e1policy": 2983,
      "ged": 2984,
      "\u2500\u00e1smo": 2985,
      "\u2500\u00e1>": 2986,
      "\u2500\u00e1basic": 2987,
      "\u2500\u00e1answer": 2988,
      "\u2500\u00e1Us": 2989,
      "\u2500\u00e1leaders": 2990,
      "\u2500\u00e1safe": 2991,
      "\u2500\u00e1innov": 2992,
      "\u2500\u00e1Ne": 2993,
      "\u2500\u00e1complete": 2994,
      "\u2500\u00e1Under": 2995,
      "chol": 2996,
      "\u2500\u00e1accur": 2997,
      "\u2500\u00e1reve": 2998,
      "\u2500\u00e1insp": 2999,
      "\u2500\u00e1Pre": 3000,
      "\u2500\u00e1sustain": 3001,
      "word": 3002,
      "\u2500\u00e1primary": 3003,
      "\u2500\u00e1features": 3004,
      "\u2500\u00e1prep": 3005,
      "bol": 3006,
      "\u2500\u00e1input": 3007,
      "\u2500\u00e1late": 3008,
      "\u2500\u00e1--": 3009,
      "ED": 3010,
      "amples": 3011,
      "\u2500\u00e1looking": 3012,
      "\u2500\u00e1page": 3013,
      "\u2500\u00e1webs": 3014,
      "\u2500\u00e1talk": 3015,
      "\u2500\u00e1efforts": 3016,
      "\u2500\u00e1Per": 3017,
      "\u2500\u00e1exact": 3018,
      "umb": 3019,
      "IC": 3020,
      "ken": 3021,
      "uth": 3022,
      "ttps": 3023,
      "\u2500\u00e1tax": 3024,
      "\u2500\u00e1achieve": 3025,
      "ament": 3026,
      "\u2500\u00e1Many": 3027,
      "ials": 3028,
      "duc": 3029,
      "pes": 3030,
      "\u2500\u00e1squ": 3031,
      "fort": 3032,
      "resh": 3033,
      "\u2500\u00e1shap": 3034,
      "\u2500\u00e1guid": 3035,
      "\u2500\u00e1opportunities": 3036,
      "\u2500\u00e1scre": 3037,
      "Up": 3038,
      "\u2500\u00e1thinking": 3039,
      "\u2500\u00e1shape": 3040,
      "tings": 3041,
      "cles": 3042,
      "\u2500\u00e1overall": 3043,
      "\u2500\u00e1div": 3044,
      "\u2500\u00e1investig": 3045,
      "\u2500\u00e1independ": 3046,
      "atively": 3047,
      "\u2500\u00e1visit": 3048,
      "\u2500\u00e1average": 3049,
      "\u2500\u00e1cross": 3050,
      "\u2500\u00e1stru": 3051,
      "\u2500\u00e1Fl": 3052,
      "\u2500\u00e1compared": 3053,
      "\u2500\u00e1valu": 3054,
      "\u2500\u00e1damage": 3055,
      "\u2500\u00e1School": 3056,
      "\u2500\u00e1shown": 3057,
      "\u2500\u00e1camp": 3058,
      "\u2500\u00e1earl": 3059,
      "'ll": 3060,
      "\u2500\u00e1appl": 3061,
      "\u2500\u00e1decision": 3062,
      "haps": 3063,
      "\u2500\u00e1cit": 3064,
      "www": 3065,
      "room": 3066,
      "erson": 3067,
      "\u2500\u00e1strategies": 3068,
      "\u2500\u00e1Qu": 3069,
      "\u2500\u00e1beyond": 3070,
      "rench": 3071,
      "ounds": 3072,
      "\u2500\u00e1requires": 3073,
      "itude": 3074,
      "\u2500\u00e1force": 3075,
      "\u2500\u00e1bacter": 3076,
      "\u2500\u00e1patterns": 3077,
      "\u2500\u00e1processes": 3078,
      "\u2500\u00e1rout": 3079,
      "\u2500\u00e1wid": 3080,
      "\u2500\u00e1kids": 3081,
      "\u2500\u00e1network": 3082,
      "\u2500\u00e1poll": 3083,
      "\u2500\u00e1ful": 3084,
      "\u2500\u00e1Japan": 3085,
      "\u2500\u00e1series": 3086,
      "By": 3087,
      "gar": 3088,
      "\u2500\u00e1India": 3089,
      "term": 3090,
      "\u2500\u00e1warm": 3091,
      "\u2500\u00e1lo": 3092,
      "\u2500\u00e1bill": 3093,
      "ederal": 3094,
      "ously": 3095,
      "\u2500\u00e1lack": 3096,
      "\u2500\u00e1scientific": 3097,
      "resp": 3098,
      "\u2500\u00e1electric": 3099,
      "\u2500\u00e1quite": 3100,
      "uments": 3101,
      "\u2500\u00e1town": 3102,
      "\u2500\u00e1earth": 3103,
      "\u2500\u00e1magn": 3104,
      "\u2500\u00e1probably": 3105,
      "\u2500\u00e1Sim": 3106,
      "log": 3107,
      "\u2500\u00e1theory": 3108,
      "ciples": 3109,
      "\u2500\u00e1attempt": 3110,
      "\u2500\u00e1foods": 3111,
      "\u2500\u00e1quickly": 3112,
      "\u2500\u00e1international": 3113,
      "\u2500\u00e1cover": 3114,
      "pper": 3115,
      "\u2500\u00e1request": 3116,
      "\u2500\u00e1everything": 3117,
      "\u2500\u00e1carbon": 3118,
      "rated": 3119,
      "\u2500\u00e1collab": 3120,
      "\u2500\u00e1Through": 3121,
      "\u2500\u00e1cool": 3122,
      "\u2500\u00e1pack": 3123,
      "\u2500\u00e1output": 3124,
      "\u2500\u00e1inform": 3125,
      "inct": 3126,
      "ST": 3127,
      "\u2500\u00e1Des": 3128,
      "ream": 3129,
      "asons": 3130,
      "aly": 3131,
      "\u2500\u00e1colon": 3132,
      "\u2500\u00e1game": 3133,
      "\u2500\u00e1eat": 3134,
      "met": 3135,
      "\u2500\u00ec\u2500\u00e8\u2500\u00e1\u2500\u00e1\u2500\u00e1": 3136,
      "append": 3137,
      "cret": 3138,
      "hens": 3139,
      "\u2500\u00e1document": 3140,
      "abet": 3141,
      "\u2500\u00e1predict": 3142,
      "more": 3143,
      "AC": 3144,
      "\u2500\u00e1visual": 3145,
      "\u2500\u00e1prec": 3146,
      "oday": 3147,
      "\u2500\u00e1appreci": 3148,
      "\u2500\u00e1tri": 3149,
      "\u2500\u00e1forest": 3150,
      "isms": 3151,
      "\u2500\u00e1easily": 3152,
      "rie": 3153,
      "point": 3154,
      "\u2500\u00e1Ret": 3155,
      "\u2500\u00e1ago": 3156,
      "vention": 3157,
      "\u2500\u00e1patient": 3158,
      "\u2500\u00e1base": 3159,
      "iency": 3160,
      "\u2500\u00e1animal": 3161,
      "lease": 3162,
      "\u2500\u00e1night": 3163,
      "ellow": 3164,
      "\u2500\u00e1lif": 3165,
      "iring": 3166,
      "\u2500\u00e1host": 3167,
      "\u2500\u00e1families": 3168,
      "\u2500\u00e1perspect": 3169,
      "\u2500\u00e1ir": 3170,
      "\u2500\u00e1additional": 3171,
      "\u2500\u00e1valuable": 3172,
      "illi": 3173,
      "\u2500\u00e1sect": 3174,
      "\u2500\u00e1variety": 3175,
      "\u2500\u00e1teachers": 3176,
      "idge": 3177,
      "\u2500\u00e1generally": 3178,
      "\u2500\u00e1search": 3179,
      "\u2500\u00e1wood": 3180,
      "\u2500\u00e1civil": 3181,
      "\u2500\u00e1digital": 3182,
      "\u2500\u00e1poor": 3183,
      "\u2500\u00e1gain": 3184,
      "\u2500\u00e1cou": 3185,
      "\u2500\u00e1veget": 3186,
      "\u2500\u00e1tree": 3187,
      "ilos": 3188,
      "just": 3189,
      "oles": 3190,
      "\u2500\u00e1Science": 3191,
      "\u2500\u00e1Reg": 3192,
      "\u2500\u00e1difference": 3193,
      "erate": 3194,
      "\u2500\u00e1academ": 3195,
      "ceed": 3196,
      "\u2500\u00e1software": 3197,
      "alking": 3198,
      "\u2500\u00e1serious": 3199,
      "\u2500\u00e1influence": 3200,
      "\u2500\u00e1ancient": 3201,
      "\u2500\u00e1crucial": 3202,
      "\u2500\u00e1Austral": 3203,
      "\u2500\u00e1lines": 3204,
      "uge": 3205,
      "AL": 3206,
      "\u2500\u00e1becomes": 3207,
      "\u2500\u00e1dou": 3208,
      "ession": 3209,
      "vert": 3210,
      "mission": 3211,
      "\u2500\u00e1active": 3212,
      "\u2500\u00e1reported": 3213,
      "\u2500\u00e1CO": 3214,
      "izes": 3215,
      "\u2500\u00e1financial": 3216,
      "\u2500\u00e1manufact": 3217,
      "igen": 3218,
      "lim": 3219,
      "inks": 3220,
      "value": 3221,
      "\"]": 3222,
      "\u2500\u00e1situation": 3223,
      "itch": 3224,
      "uild": 3225,
      "osing": 3226,
      "\u2500\u00e1larger": 3227,
      "\u2500\u00e1Min": 3228,
      "\u2500\u00e1teaching": 3229,
      "\u2500\u00e1fit": 3230,
      "ana": 3231,
      "oud": 3232,
      "encies": 3233,
      "ief": 3234,
      "\u2500\u00e1added": 3235,
      "\u2500\u00e1Art": 3236,
      "odes": 3237,
      "\u2500\u00e1Pres": 3238,
      "ynam": 3239,
      "\u2500\u00e1optim": 3240,
      "\u2500\u00e1bit": 3241,
      "\u2500\u00e1prin": 3242,
      "\u2500\u00e1companies": 3243,
      "\u2500\u00e1hyd": 3244,
      "roup": 3245,
      "\u2500\u00e1section": 3246,
      "\u2500\u00e1isn": 3247,
      "odies": 3248,
      "\u2500\u00e1included": 3249,
      "ha": 3250,
      "\u2500\u00e1established": 3251,
      "\u2500\u00e1table": 3252,
      "\u2500\u00e1applications": 3253,
      "\u2500\u00e1calcul": 3254,
      "alls": 3255,
      "RE": 3256,
      "itable": 3257,
      "\u2500\u00e1providing": 3258,
      "bor": 3259,
      "\u2500\u00e1aspects": 3260,
      "\u2500\u00e1King": 3261,
      "uries": 3262,
      "\u2500\u00e1ox": 3263,
      "\u2500\u00e1tend": 3264,
      "\u2500\u00e1images": 3265,
      "rial": 3266,
      "\u2500\u00e1remains": 3267,
      "\u2500\u00e1sil": 3268,
      "\u2500\u00e1powerful": 3269,
      "ancy": 3270,
      "wise": 3271,
      "print": 3272,
      "ucle": 3273,
      "ret": 3274,
      "\u2500\u00e1China": 3275,
      "\u2500\u00e1prior": 3276,
      "IV": 3277,
      "\u2500\u00e1Part": 3278,
      "\u2500\u00e1application": 3279,
      "On": 3280,
      "\u2500\u00e1produced": 3281,
      "\u2500\u00e1feet": 3282,
      "ulate": 3283,
      "\u2500\u00e1European": 3284,
      "ille": 3285,
      "\u2500\u00e1bur": 3286,
      "\u2500\u00e1speak": 3287,
      "\u2500\u00e1hands": 3288,
      "\u2500\u00e1friend": 3289,
      "\u2500\u00e1fost": 3290,
      "\u2500\u00e1Comp": 3291,
      "\u2500\u00e1security": 3292,
      "\u2500\u00e1conflic": 3293,
      "ibrary": 3294,
      "\u2500\u00e1Tra": 3295,
      "ception": 3296,
      "\u2500\u00e1,": 3297,
      "mar": 3298,
      "\u2500\u00e8\u2500\u00e1\u2500\u00e1\u2500\u00e1\u2500\u00e1\u2500\u00e1\u2500\u00e1\u2500\u00e1\u2500\u00e1\u2500\u00e1\u2500\u00e1\u2500\u00e1\u2500\u00e1\u2500\u00e1\u2500\u00e1\u2500\u00e1\u2500\u00e1\u2500\u00e1\u2500\u00e1\u2500\u00e1\u2500\u00e1\u2500\u00e1\u2500\u00e1\u2500\u00e1\u2500\u00e1\u2500\u00e1\u2500\u00e1\u2500\u00e1\u2500\u00e1\u2500\u00e1\u2500\u00e1\u2500\u00e1\u2500\u00e1": 3299,
      "\u2500\u00e1From": 3300,
      "\u2500\u00e1steps": 3301,
      "\u2500\u00e1hor": 3302,
      "\u2500\u00e1gard": 3303,
      "emporary": 3304,
      "\u2500\u00e1Just": 3305,
      "\u2500\u00e1concent": 3306,
      "anks": 3307,
      "lands": 3308,
      "\u2500\u00e1bad": 3309,
      "\u2500\u00e1thus": 3310,
      "\u2500\u00e1mention": 3311,
      "phas": 3312,
      "\u2500\u00e1ult": 3313,
      "\u2500\u00e1Count": 3314,
      "\u2500\u00e1Do": 3315,
      "\u2500\u00e1ep": 3316,
      "\u2500\u00e1transport": 3317,
      "\u2500\u00e1soon": 3318,
      "\u2500\u00e1directly": 3319,
      "\u2500\u00e1religious": 3320,
      "cks": 3321,
      "\u2500\u00e1thous": 3322,
      "\u2500\u00e1eye": 3323,
      "\u2500\u00e1quant": 3324,
      "care": 3325,
      "enge": 3326,
      "\"\"\"": 3327,
      "med": 3328,
      "\u2500\u00e1virus": 3329,
      "\u2500\u00e1spirit": 3330,
      "\u2500\u00e1Russ": 3331,
      "rror": 3332,
      "bit": 3333,
      "\u2500\u00e1sn": 3334,
      "ino": 3335,
      "\u2500\u00e1immedi": 3336,
      "\u2500\u00e8\u2500\u00e1\u2500\u00e1\u2500\u00e1\u2500\u00e1\u2500\u00e1\u2500\u00e1\u2500\u00e1\u2500\u00e1\u2500\u00e1\u2500\u00e1\u2500\u00e1\u2500\u00e1\u2500\u00e1\u2500\u00e1\u2500\u00e1\u2500\u00e1\u2500\u00e1\u2500\u00e1\u2500\u00e1\u2500\u00e1\u2500\u00e1\u2500\u00e1\u2500\u00e1": 3337,
      "itect": 3338,
      "\u2500\u00e1ang": 3339,
      "\u2500\u00e1dang": 3340,
      "\u2500\u00e1video": 3341,
      "arv": 3342,
      "uff": 3343,
      "requ": 3344,
      "ev": 3345,
      "\u2500\u00e1determine": 3346,
      "ran": 3347,
      "\u2500\u00e1establish": 3348,
      "\u2500\u00e1Not": 3349,
      "\u2500\u00e1appropriate": 3350,
      "\u2500\u00e1\u251c\u00e9": 3351,
      "mat": 3352,
      "ying": 3353,
      "\u2500\u00e8\u2500\u00eb": 3354,
      "\u2500\u00e1relationships": 3355,
      "\u2500\u00e1ast": 3356,
      "\u2500\u00e1belief": 3357,
      "\u2500\u00e1responsible": 3358,
      "\u2500\u00e1projects": 3359,
      "\u2500\u00e1Pol": 3360,
      "\u2500\u00e1My": 3361,
      "\u2500\u00e1offers": 3362,
      "\u2500\u00e1got": 3363,
      "ience": 3364,
      "\u2500\u00e1named": 3365,
      "\u2500\u00e1fasc": 3366,
      "\u2500\u00e1estim": 3367,
      "\u2500\u00e1waste": 3368,
      "\u2500\u00e1diseases": 3369,
      "\u2500\u00e1gradu": 3370,
      "\u2500\u00e1convers": 3371,
      "\u2500\u00e1rules": 3372,
      "\u2500\u00e1places": 3373,
      "\u2500\u00e1foot": 3374,
      "\u2500\u00e1cele": 3375,
      "ifically": 3376,
      "\u2500\u00e1expos": 3377,
      "\u2500\u00e1os": 3378,
      "\u2500\u00e1mother": 3379,
      "\u2500\u00e1hot": 3380,
      "\u2500\u00e1devices": 3381,
      "\u2500\u00e1propos": 3382,
      "\u2500\u00e1bab": 3383,
      "\u2500\u00e1diverse": 3384,
      "\u2500\u00e1military": 3385,
      "\u2500\u00e1refer": 3386,
      "\u2500\u00e1agree": 3387,
      "\u2500\u00e1exercise": 3388,
      "\u2500\u00e1Dis": 3389,
      "\u2500\u00e1proced": 3390,
      "assert": 3391,
      "\u2500\u00e1incorpor": 3392,
      "\u2500\u00e1expected": 3393,
      "\u2500\u00e1@": 3394,
      "\u2500\u00e1Ed": 3395,
      "\u2500\u00e1trying": 3396,
      "\u2500\u00e1install": 3397,
      "\u2500\u00e1road": 3398,
      "\u2500\u00e1sus": 3399,
      "\u2500\u00e1rates": 3400,
      "\u2500\u00e1objects": 3401,
      "\u2500\u00e1complet": 3402,
      "\u2500\u00e1final": 3403,
      "hors": 3404,
      "orders": 3405,
      "\u2500\u00e1cred": 3406,
      "\u2500\u00e1decre": 3407,
      "\u2500\u00e1held": 3408,
      "inated": 3409,
      "\u2500\u00e1nav": 3410,
      "dict": 3411,
      "\u2500\u00e1mix": 3412,
      "\u2500\u00e1asked": 3413,
      "\u2500\u00e1attack": 3414,
      "\u2500\u00e1exploring": 3415,
      "\u2500\u00e1options": 3416,
      "\u2500\u00e1trees": 3417,
      "\u2500\u00e1interpre": 3418,
      "\u2500\u00e1seems": 3419,
      "ecause": 3420,
      "\u2500\u00e1card": 3421,
      "illing": 3422,
      "\u2500\u00e1und": 3423,
      "\u2500\u00e1successful": 3424,
      "\u2500\u00e1legal": 3425,
      "\u2500\u00e1sea": 3426,
      "\u2500\u00e1strugg": 3427,
      "\u2500\u00e1rich": 3428,
      "\u2500\u00e1Educ": 3429,
      "off": 3430,
      "\u2500\u00e1typically": 3431,
      "\u2500\u00e1French": 3432,
      "\u2500\u00e1front": 3433,
      "\u2500\u00e1mis": 3434,
      "\u2500\u00e1limited": 3435,
      "hemat": 3436,
      "comp": 3437,
      "ET": 3438,
      "\u2500\u00e1components": 3439,
      "iful": 3440,
      "\u2500\u00e1Gl": 3441,
      "\u2500\u00e1nation": 3442,
      "ding": 3443,
      "\u2500\u00e1journey": 3444,
      "\u2500\u00e1involves": 3445,
      "\u2500\u00e1purpose": 3446,
      "used": 3447,
      "writ": 3448,
      "\u2500\u00e1whose": 3449,
      "\u2500\u00e1Cour": 3450,
      "\u2500\u00e1vacc": 3451,
      "\u2500\u00e1highly": 3452,
      "\u2500\u00e1rob": 3453,
      "ellig": 3454,
      "\u2500\u00e1breat": 3455,
      "\u2500\u00e1favor": 3456,
      "\u2500\u00e1jud": 3457,
      "rong": 3458,
      "\u2500\u00e1sold": 3459,
      "life": 3460,
      "Res": 3461,
      "inst": 3462,
      "inate": 3463,
      "\u2500\u00e1third": 3464,
      "\u2500\u00e1useful": 3465,
      "\u2500\u00e1central": 3466,
      "\u2500\u00e1raise": 3467,
      "\u2500\u00e1perfect": 3468,
      "dir": 3469,
      "\u2500\u00e1reach": 3470,
      "istry": 3471,
      "\u2500\u00e1therefore": 3472,
      "At": 3473,
      "\u2500\u00e1stri": 3474,
      "\u2500\u00e1clin": 3475,
      "\u2500\u00e1device": 3476,
      "format": 3477,
      "\u2500\u00e1obtain": 3478,
      "\u2500\u00e1Ju": 3479,
      "\u2500\u00e1examples": 3480,
      "iles": 3481,
      "None": 3482,
      "\u2500\u00e1Although": 3483,
      "oming": 3484,
      "\u2500\u00e1learned": 3485,
      "\u2500\u00e1African": 3486,
      "\u2500\u00e1minutes": 3487,
      "\u2500\u00e1Her": 3488,
      "oat": 3489,
      "uman": 3490,
      "\u2500\u00e1goal": 3491,
      "df": 3492,
      "ipment": 3493,
      "param": 3494,
      "atform": 3495,
      "\u2500\u00e1labor": 3496,
      "\u2500\u00e1eyes": 3497,
      "\u2500\u00e1dry": 3498,
      "\u2500\u00e1costs": 3499,
      "\u2500\u00e1memory": 3500,
      "\u2500\u00e1property": 3501,
      "\u2500\u00e1continu": 3502,
      "\u2500\u00e1Mod": 3503,
      "eks": 3504,
      "Error": 3505,
      "\u2500\u00e1fair": 3506,
      "\u2500\u00e1vit": 3507,
      "\u2500\u00e1First": 3508,
      "\u2500\u00e1load": 3509,
      "water": 3510,
      "\u2500\u00e1Sm": 3511,
      "Step": 3512,
      "\u2500\u00e1Of": 3513,
      "\u2500\u00e1went": 3514,
      "\u2500\u00e1transform": 3515,
      "\u2500\u00e1demand": 3516,
      "========": 3517,
      "\u2500\u00e1Africa": 3518,
      "\u2500\u00e1length": 3519,
      "change": 3520,
      "overy": 3521,
      "Section": 3522,
      "\u2500\u00e1severe": 3523,
      "\u2500\u00e1negative": 3524,
      "\u2500\u00e1choose": 3525,
      "rap": 3526,
      "\u2500\u00e1communic": 3527,
      "And": 3528,
      "\u2500\u00e1Most": 3529,
      "\u2500\u00e1Indian": 3530,
      "\u2500\u00e1month": 3531,
      "\u2500\u00e1chapter": 3532,
      "asks": 3533,
      "\u2500\u00e1anything": 3534,
      "\u2500\u00e1respond": 3535,
      "\u2500\u00e1Ac": 3536,
      "attle": 3537,
      "\u2500\u00e1fast": 3538,
      "\u2500\u00e1rapid": 3539,
      "ashing": 3540,
      "cape": 3541,
      "\u2500\u00e1protection": 3542,
      "'ve": 3543,
      "\u2500\u00e1professional": 3544,
      "iot": 3545,
      "na": 3546,
      "\u2500\u00e1speed": 3547,
      "\u2500\u00e1sequ": 3548,
      "useum": 3549,
      "\u2500\u00e1Other": 3550,
      "\u2500\u00e1although": 3551,
      "urg": 3552,
      "\u2500\u00e1param": 3553,
      "\u2500\u00e1Christian": 3554,
      "\u2500\u00e1categ": 3555,
      "\u2500\u00e1explain": 3556,
      "\u2500\u00e1pan": 3557,
      "\u2500\u00e8\u2500\u00eb\u2500\u00eb": 3558,
      "\u2500\u00e1status": 3559,
      "\u2500\u00e1via": 3560,
      "\u2500\u00e1fa": 3561,
      "\u2500\u00e1novel": 3562,
      "lation": 3563,
      "\u2500\u00e1solution": 3564,
      "cean": 3565,
      "ml": 3566,
      "\u2500\u00e1Jan": 3567,
      "\u2500\u00e1fight": 3568,
      "\u2500\u00e1Now": 3569,
      "\u2500\u00e1mount": 3570,
      "\u2500\u00e1significantly": 3571,
      "ocks": 3572,
      "\u2500\u00e1symbol": 3573,
      "fficient": 3574,
      "\u2500\u00e1capital": 3575,
      "ech": 3576,
      "\u2500\u00e1supply": 3577,
      "\u2500\u00e1contribute": 3578,
      "\u2500\u00e1Rem": 3579,
      "\u2500\u00e1cam": 3580,
      "\u2500\u00e1differences": 3581,
      "\u2500\u00e1capac": 3582,
      "\u2500\u00e1behavi": 3583,
      "\u2500\u00e1regarding": 3584,
      "undred": 3585,
      "\u2500\u00e1version": 3586,
      "ager": 3587,
      "\u2500\u00e1command": 3588,
      "\u2500\u00e1room": 3589,
      "\u2500\u00e1lost": 3590,
      "comment": 3591,
      "oe": 3592,
      "\u2500\u00e1contains": 3593,
      "\u2500\u00e1Techn": 3594,
      "state": 3595,
      "\u2500\u00e1Val": 3596,
      "\u2500\u00e1habit": 3597,
      "\u2500\u00e1adults": 3598,
      "\u2500\u00e1wide": 3599,
      "\u2500\u00e1shared": 3600,
      "\u2500\u00e1autom": 3601,
      "\u2500\u00e1advant": 3602,
      "Cl": 3603,
      "iny": 3604,
      "\u2500\u00e1dark": 3605,
      "\u2500\u00e1Mus": 3606,
      "\u2500\u00e1bound": 3607,
      "\u2500\u00e1block": 3608,
      "ius": 3609,
      "year": 3610,
      "\u2500\u00e1consequ": 3611,
      "\u2500\u00e1citiz": 3612,
      "rition": 3613,
      "roduction": 3614,
      "omet": 3615,
      "\u2500\u00e1beginning": 3616,
      "uk": 3617,
      "\u2500\u00e1principles": 3618,
      "uary": 3619,
      "\u2500\u00e1workers": 3620,
      "\u2500\u00e1brought": 3621,
      "\u2500\u00e1http": 3622,
      "\u2500\u00e1ing": 3623,
      "\u2500\u00e1emphas": 3624,
      "\u2500\u00e1encourag": 3625,
      "\u2500\u00e1structures": 3626,
      "\u2500\u00e1Aug": 3627,
      "\u2500\u00e1Jes": 3628,
      "\u2500\u00e1users": 3629,
      "\u2500\u00e1balance": 3630,
      "\u2500\u00e1carry": 3631,
      "\u2500\u00e1stage": 3632,
      "\u2500\u00e1dim": 3633,
      "\u2500\u00e1trust": 3634,
      "\u2500\u00e1True": 3635,
      "\u2500\u00e1Over": 3636,
      "cious": 3637,
      "iter": 3638,
      "\u2500\u00e1veh": 3639,
      "____": 3640,
      "wide": 3641,
      "\u2500\u00e1tests": 3642,
      "\u2500\u00e1actions": 3643,
      "\u2500\u00e1Center": 3644,
      "\u2500\u00e1season": 3645,
      "\u2500\u00e1private": 3646,
      "\u2500\u00e1exec": 3647,
      "\u2500\u00e1doctor": 3648,
      "erences": 3649,
      "\u2500\u00e1Gree": 3650,
      "\u2500\u00e1sec": 3651,
      "sect": 3652,
      "iers": 3653,
      "\u2500\u00e1forces": 3654,
      "\u2500\u00e1appe": 3655,
      "\u2500\u00e1received": 3656,
      "\u2500\u00e1literature": 3657,
      "\u2500\u00e1discovered": 3658,
      "with": 3659,
      "iforn": 3660,
      "\u2500\u00e1news": 3661,
      "gn": 3662,
      "acters": 3663,
      "\u2500\u00e1agricult": 3664,
      "\u2500\u00e1accom": 3665,
      "\u2500\u00e1mag": 3666,
      "osition": 3667,
      "\u2500\u00e1tim": 3668,
      "\u2500\u00e1neigh": 3669,
      "\u2500\u00e1graph": 3670,
      "oting": 3671,
      "\u2500\u00e1acid": 3672,
      "\u2500\u00e1limit": 3673,
      "\u2500\u00e1defin": 3674,
      "\u2500\u00e1continued": 3675,
      "idents": 3676,
      "\u2500\u00e1protein": 3677,
      "\u2500\u00e1hon": 3678,
      "\u2500\u00e1administ": 3679,
      "\u2500\u00e1saw": 3680,
      "He": 3681,
      "unction": 3682,
      "\u2500\u00e1didn": 3683,
      "\u2500\u00e1interesting": 3684,
      "\u2500\u00e1earlier": 3685,
      "ios": 3686,
      "\u2500\u00e1birth": 3687,
      "\u2500\u00e1date": 3688,
      "\u2500\u00e1West": 3689,
      "\u2500\u00e1der": 3690,
      "\u2500\u00e1functions": 3691,
      "\u2500\u00e1Mon": 3692,
      "\u2500\u00e1solar": 3693,
      "\u2500\u00e1discover": 3694,
      "\u2500\u00e1location": 3695,
      "\u2500\u00e1fear": 3696,
      "\u2500\u00e1German": 3697,
      "\u2500\u00e1Our": 3698,
      "ocol": 3699,
      "EC": 3700,
      "\u2500\u00e1Tw": 3701,
      "\u2500\u00e1virt": 3702,
      "\u2500\u00e1forward": 3703,
      "unch": 3704,
      "\u2500\u00e1fields": 3705,
      "Un": 3706,
      "\u2500\u00e1laws": 3707,
      "udd": 3708,
      "EM": 3709,
      "\u2500\u00e1reasons": 3710,
      "\u2500\u00e1leaves": 3711,
      "\u2500\u00e1center": 3712,
      "\u2500\u00e1II": 3713,
      "\u2500\u00e1message": 3714,
      "abetes": 3715,
      "\u2500\u00e1infection": 3716,
      "\u2500\u00e1\u2500\u00e8": 3717,
      "zz": 3718,
      "efore": 3719,
      "\u2500\u00e1organizations": 3720,
      "estic": 3721,
      "\u2500\u00e1cra": 3722,
      "\u2500\u00e1items": 3723,
      "\u2500\u00e1benefit": 3724,
      "```": 3725,
      "\u2500\u00e1Here": 3726,
      "\u2500\u00e1teach": 3727,
      "\u2500\u00e1testing": 3728,
      "ternal": 3729,
      "\u2500\u00e1recommend": 3730,
      "aught": 3731,
      "\u2500\u00e1mole": 3732,
      "Re": 3733,
      "():": 3734,
      "\u2500\u00e1trade": 3735,
      "\u2500\u00e1measures": 3736,
      "\u2500\u00e1weeks": 3737,
      "start": 3738,
      "omy": 3739,
      "ky": 3740,
      "\u2500\u00e1emp": 3741,
      "\u2500\u00e1Even": 3742,
      "\u2500\u00e1teacher": 3743,
      "ifornia": 3744,
      "\u2500\u00e1bra": 3745,
      "\u2500\u00e1machine": 3746,
      "\u2500\u00e1compre": 3747,
      "\u2500\u00e1vo": 3748,
      "\u2500\u00e1depend": 3749,
      "Com": 3750,
      "\u2500\u00e1therapy": 3751,
      "\u2500\u00e1root": 3752,
      "\u2500\u00e1resource": 3753,
      "\u2500\u00e1construct": 3754,
      "aid": 3755,
      "\u2500\u00e1Great": 3756,
      "###": 3757,
      "\u2500\u00e1efficient": 3758,
      "abilities": 3759,
      "\u2500\u00e1History": 3760,
      "ser": 3761,
      "__(": 3762,
      "\u2500\u00e1won": 3763,
      "\u2500\u00e1smaller": 3764,
      "\u2500\u00e1Develop": 3765,
      "\u2500\u00e1prop": 3766,
      "book": 3767,
      "\u2500\u00e1Each": 3768,
      "arian": 3769,
      "\u2500\u00e1controll": 3770,
      "votes": 3771,
      "\u2500\u00e1ten": 3772,
      "ula": 3773,
      "\u2500\u00e1Institute": 3774,
      "\u2500\u00e1challenge": 3775,
      "\u2500\u00e1Child": 3776,
      "\u2500\u00e1apply": 3777,
      "\u2500\u00e1Ant": 3778,
      "ought": 3779,
      "Ar": 3780,
      "plit": 3781,
      "pril": 3782,
      "\u2500\u00e1told": 3783,
      "\u2500\u00e1copy": 3784,
      "\u2500\u00e1egg": 3785,
      "\u2500\u00e1shall": 3786,
      "\u2500\u00e1opportunity": 3787,
      "\u2500\u00e1illust": 3788,
      "ditionally": 3789,
      "\u2500\u00e1Trans": 3790,
      "\u2500\u00e1initial": 3791,
      "ira": 3792,
      "ony": 3793,
      "\u2500\u00e1essay": 3794,
      "\u2500\u00e1deal": 3795,
      "\u2500\u00e1receive": 3796,
      "config": 3797,
      "\u2500\u00e1dynam": 3798,
      "ancing": 3799,
      "\u2500\u00e1piece": 3800,
      "\u2500\u00e1eating": 3801,
      "rote": 3802,
      "\u2500\u00e1authors": 3803,
      "bre": 3804,
      "\u2500\u00e8\u2500\u00e1": 3805,
      "que": 3806,
      "\u2500\u00e1located": 3807,
      "\u2500\u00e1vict": 3808,
      "\u2500\u00e1serve": 3809,
      "\u2500\u00e1philos": 3810,
      "\u2500\u00e1thr": 3811,
      "\u2500\u00e1assign": 3812,
      "\u2500\u00e1equipment": 3813,
      "\u2500\u00e1\\": 3814,
      "\u2500\u00e1degree": 3815,
      "''": 3816,
      "\u2500\u00e1website": 3817,
      "\u2500\u00e1International": 3818,
      "Upvotes": 3819,
      "\u2500\u00e1Department": 3820,
      "atur": 3821,
      "\u2500\u00e1hundred": 3822,
      "apers": 3823,
      "\u2500\u00e1numerous": 3824,
      "With": 3825,
      "\u2500\u00e1hope": 3826,
      "\u2500\u00e1util": 3827,
      "\u2500\u00e1Commun": 3828,
      "\u2500\u00e1System": 3829,
      "ournal": 3830,
      "max": 3831,
      "\u2500\u00e1existing": 3832,
      "\u2500\u00e1display": 3833,
      "\u2500\u00e1names": 3834,
      "coh": 3835,
      "\u2500\u00e1constant": 3836,
      "\u2500\u00e1Sw": 3837,
      "irection": 3838,
      "\u251c\u00f3\u2500\u00f3\u252c\u00f3": 3839,
      "\u2500\u00e1ax": 3840,
      "\u2500\u00e1details": 3841,
      "\u2500\u00e1repl": 3842,
      "outhern": 3843,
      "\u2500\u00e1journal": 3844,
      "ingu": 3845,
      "################": 3846,
      "\u2500\u00e1moment": 3847,
      "airs": 3848,
      "\u2500\u00e1properties": 3849,
      "\u2500\u00e1concepts": 3850,
      "\u2500\u00e1initi": 3851,
      "gram": 3852,
      "ulated": 3853,
      "\u2500\u00e1collection": 3854,
      "\u2500\u00e1Their": 3855,
      "\u2500\u00e1task": 3856,
      "\u2500\u00e1Oct": 3857,
      "\u2500\u00e1len": 3858,
      "inese": 3859,
      "\u2500\u00e1solutions": 3860,
      "\u2500\u00e1rare": 3861,
      "\u2500\u00e1Lear": 3862,
      "\u2500\u00e1concerns": 3863,
      "known": 3864,
      "\u2500\u00e1feature": 3865,
      "\u2500\u00e1architect": 3866,
      "\u2500\u00e1effort": 3867,
      "\u2500\u00e1Serv": 3868,
      "\u2500\u00e1exactly": 3869,
      "\u2500\u00e1characters": 3870,
      "\u2500\u00e1alg": 3871,
      "AP": 3872,
      "\u2500\u00e1described": 3873,
      "urt": 3874,
      "\u2500\u00e1Then": 3875,
      "\u2500\u00e1expand": 3876,
      "\u2500\u00e1web": 3877,
      "\u2500\u00e1nothing": 3878,
      "\u2500\u00e1sites": 3879,
      "eper": 3880,
      "rogen": 3881,
      "ocr": 3882,
      "ensity": 3883,
      "\u2500\u00e1decisions": 3884,
      "\u2500\u00e1exposure": 3885,
      "\u2500\u00e1Jesus": 3886,
      "\u2500\u00e1scen": 3887,
      "index": 3888,
      "\u2500\u00e1California": 3889,
      "\u2500\u00e1connection": 3890,
      "\u2500\u00e1middle": 3891,
      "\u2500\u00e1burn": 3892,
      "\u2500\u00e1bott": 3893,
      "\u2500\u00e1gives": 3894,
      "\u2500\u00e1dead": 3895,
      "\u2500\u00e1narr": 3896,
      "\u2500\u00e1During": 3897,
      "\u2500\u00e1save": 3898,
      "igenous": 3899,
      "\u2500\u00e1affected": 3900,
      "\u2500\u00e1construction": 3901,
      "These": 3902,
      "\u2500\u00e1March": 3903,
      "\u2500\u00e1organization": 3904,
      "\u2500\u00e1identity": 3905,
      "\u2500\u00e1El": 3906,
      "AD": 3907,
      "\u2500\u00e1ice": 3908,
      "\u2500\u00e1instru": 3909,
      "\u2500\u00e1allowing": 3910,
      "RO": 3911,
      "\u2500\u00e1contemporary": 3912,
      "\u2500\u00e1Americans": 3913,
      "\u2500\u00e8\u2500\u00e1\u2500\u00e1\u2500\u00e1\u2500\u00e1\u2500\u00e1": 3914,
      "\u2500\u00e1nucle": 3915,
      "ests": 3916,
      "\u2500\u00e1allowed": 3917,
      "elines": 3918,
      "usion": 3919,
      "\u2500\u00e1nearly": 3920,
      "\u2500\u00e1mid": 3921,
      "\u2500\u00e1followed": 3922,
      "ibly": 3923,
      "ned": 3924,
      "\u2500\u00e1planet": 3925,
      "\u2500\u00e1acqu": 3926,
      "uration": 3927,
      "\u2500\u00e1recently": 3928,
      "\u2500\u00e1Well": 3929,
      "\u2500\u00e1himself": 3930,
      "\u2500\u00e1mut": 3931,
      "\u2500\u00e1hous": 3932,
      "\u2500\u00e1maxim": 3933,
      "\u2500\u00e1leave": 3934,
      "\u2500\u00e1goes": 3935,
      "works": 3936,
      "urb": 3937,
      "\u2500\u00e1rule": 3938,
      "\u2500\u00e1bacteria": 3939,
      "\u2500\u00e1mig": 3940,
      "\u2500\u00e1platform": 3941,
      "\u2500\u00e1swe": 3942,
      "\u2500\u00e1older": 3943,
      "orthern": 3944,
      "ME": 3945,
      "\u2500\u00e1planning": 3946,
      "\u2500\u00e1weather": 3947,
      "\u2500\u00e1guide": 3948,
      "\u2500\u00e1goals": 3949,
      "\u2500\u00e1Red": 3950,
      "xi": 3951,
      "comes": 3952,
      "\u2500\u00e1beautiful": 3953,
      "\u2500\u00e1reduced": 3954,
      "ero": 3955,
      "\u2500\u00e1miss": 3956,
      "\u2500\u00e1ded": 3957,
      "orage": 3958,
      "\u2500\u00e1According": 3959,
      "pan": 3960,
      "\u2500\u00e1fresh": 3961,
      "\u2500\u00e1connections": 3962,
      "\u2500\u00e1technologies": 3963,
      "\u2500\u00e1scale": 3964,
      "While": 3965,
      "vis": 3966,
      ":**": 3967,
      "itis": 3968,
      "\u2500\u00e1background": 3969,
      "\u2500\u00e1Hol": 3970,
      "\u2500\u00e1infect": 3971,
      "\u2500\u00e1hol": 3972,
      "och": 3973,
      "\u2500\u00e1standards": 3974,
      "\u2500\u00e1pow": 3975,
      "mosp": 3976,
      "\u2500\u00e1fuel": 3977,
      "rees": 3978,
      "ogle": 3979,
      "model": 3980,
      "loc": 3981,
      "\u2500\u00e1sugar": 3982,
      "gy": 3983,
      "\u2500\u00e1heard": 3984,
      "\u2500\u00e1box": 3985,
      "tes": 3986,
      "\u2500\u00e1fib": 3987,
      "\u2500\u00e1born": 3988,
      "ilit": 3989,
      "\u2500\u00e1surrounding": 3990,
      "aled": 3991,
      "\u2500\u00e1River": 3992,
      "\u2500\u00e1valid": 3993,
      "\u2500\u00e1bul": 3994,
      "\u2500\u00e1largest": 3995,
      "\u2500\u00e1England": 3996,
      "\u2500\u00e1style": 3997,
      "ulum": 3998,
      "\u2500\u00e1navig": 3999,
      "ogen": 4000,
      "\u2500\u00e1qual": 4001,
      "plications": 4002,
      "\u2500\u00e1divers": 4003,
      "\u2500\u00e1Canada": 4004,
      "cons": 4005,
      "\u2500\u00e1relevant": 4006,
      "\u2500\u00e1core": 4007,
      "ags": 4008,
      "see": 4009,
      "\u2500\u00e1celebr": 4010,
      "\u2500\u00e1cold": 4011,
      "\u2500\u00e1perhaps": 4012,
      "\u2500\u00e1fascinating": 4013,
      "rael": 4014,
      "\u2500\u00e1hyp": 4015,
      "\u2500\u00e1alone": 4016,
      "\u2500\u00e1den": 4017,
      "\u2500\u00e1summer": 4018,
      "\u2500\u00e1June": 4019,
      "\u2500\u00e1Further": 4020,
      "force": 4021,
      "\u2500\u00e1rock": 4022,
      "\u2500\u00e1Inter": 4023,
      "reme": 4024,
      "\u2500\u00e1effectively": 4025,
      "iliar": 4026,
      "\u2500\u00e1Once": 4027,
      "\u2500\u00e1member": 4028,
      "\u2500\u00e1}": 4029,
      "\u2500\u00e1basis": 4030,
      "\u2500\u00e1approx": 4031,
      "\u2500\u00e1config": 4032,
      "\u2500\u00e1peace": 4033,
      "\u2500\u00e1gender": 4034,
      "\u2500\u00e1applied": 4035,
      "\u2500\u00e1completely": 4036,
      "\u2500\u00e1equal": 4037,
      "Int": 4038,
      "rupt": 4039,
      "\u2500\u00e1stra": 4040,
      "\u2500\u00e1decided": 4041,
      "\u2500\u00e1IS": 4042,
      "\u2500\u00e1Sept": 4043,
      "ffect": 4044,
      "edom": 4045,
      "mitted": 4046,
      "\u2500\u00e1element": 4047,
      "\u2500\u00e1worth": 4048,
      "\u2500\u00e1tou": 4049,
      "aste": 4050,
      "\u2500\u00e1coast": 4051,
      "\u2500\u00e1distance": 4052,
      "\u2500\u00e1August": 4053,
      "\u2500\u00e1setting": 4054,
      "can": 4055,
      "\u2500\u00e1Ke": 4056,
      "\u2500\u00e1policies": 4057,
      "\u2500\u00e1promote": 4058,
      "\u2500\u00e1Associ": 4059,
      "\u2500\u00e1default": 4060,
      "\u2500\u00e1wrong": 4061,
      "mp": 4062,
      "\u2500\u00e1Press": 4063,
      "\u2500\u00e1coll": 4064,
      "men": 4065,
      "ros": 4066,
      "\u2500\u00e1purch": 4067,
      "ounc": 4068,
      "\u2500\u00e1involve": 4069,
      "\u2500\u00e1layer": 4070,
      "atus": 4071,
      "\u2500\u00e1academic": 4072,
      "\u2500\u00e1distinct": 4073,
      "\u2500\u00e1princ": 4074,
      "ara": 4075,
      "\u2500\u00e1Use": 4076,
      "\u2500\u00e1teeth": 4077,
      "\u2500\u00e1cop": 4078,
      "\u2500\u00e1findings": 4079,
      "\u2500\u00e1py": 4080,
      "\u2500\u00e1north": 4081,
      "ht": 4082,
      "\u2500\u00e1father": 4083,
      "\u2500\u00e1tru": 4084,
      "--------------------------------": 4085,
      "cipl": 4086,
      "\u2500\u00e1detect": 4087,
      "iding": 4088,
      "\u2500\u00e1hosp": 4089,
      "\u2500\u00e1fully": 4090,
      "edia": 4091,
      "info": 4092,
      "user": 4093,
      "\u2500\u00e1Dav": 4094,
      "\u2500\u00e1rise": 4095,
      "\u2500\u00e1educational": 4096,
      "\u2500\u00e1Chinese": 4097,
      "\u2500\u00e1anti": 4098,
      "ico": 4099,
      "\u2500\u00e1surg": 4100,
      "era": 4101,
      "\u2500\u00e1cand": 4102,
      "sub": 4103,
      "\u2500\u00e1Today": 4104,
      "CO": 4105,
      "\u2500\u00e1email": 4106,
      "\u2500\u00e1fix": 4107,
      "\u2500\u00e1running": 4108,
      "\u2500\u00e1note": 4109,
      "\u2500\u00e1figure": 4110,
      "\u2500\u00e1Education": 4111,
      "\u2500\u00e1currently": 4112,
      "rical": 4113,
      "\u251c\u00f3\u2500\u00f3\u2500\u2510.": 4114,
      "\u2500\u00e1Day": 4115,
      "conn": 4116,
      "\u2500\u00e1mathemat": 4117,
      "\u2500\u00e1economy": 4118,
      "\u2500\u00e1math": 4119,
      "\u2500\u00e1signs": 4120,
      "\u2500\u00e1Willi": 4121,
      "\u2500\u00e1emotional": 4122,
      "ees": 4123,
      "\u2500\u00e1April": 4124,
      "cohol": 4125,
      "\u2500\u00e1watch": 4126,
      "ica": 4127,
      "\u2500\u00e1repe": 4128,
      "izer": 4129,
      "lam": 4130,
      "itutions": 4131,
      "\u2500\u00e1son": 4132,
      "\u2500\u00e1instruct": 4133,
      "hest": 4134,
      "\u2500\u00e1bodies": 4135,
      "\u2500\u00e1imag": 4136,
      "\u2500\u00e1enter": 4137,
      "\u2500\u00e1moving": 4138,
      "\u2500\u00e1Mc": 4139,
      "\u2500\u00e1profession": 4140,
      "\u2500\u00e1map": 4141,
      "\u2500\u00e1mob": 4142,
      "\u2500\u00e1risks": 4143,
      "\u2500\u00e1pet": 4144,
      "\u2500\u00e1giving": 4145,
      "\u2500\u00e1wanted": 4146,
      "\u2500\u00e1worked": 4147,
      "\u2500\u00e1schol": 4148,
      "\u2500\u00e1occurs": 4149,
      "\u2500\u00e1wrote": 4150,
      "([": 4151,
      "len": 4152,
      "AM": 4153,
      "aul": 4154,
      "\u2500\u00e1Const": 4155,
      "\u2500\u00e1joint": 4156,
      "ford": 4157,
      "\u2500\u00e1miles": 4158,
      "\u2500\u00e1insights": 4159,
      "\u2500\u00e1comfort": 4160,
      "\u2500\u00e1lived": 4161,
      "\u2500\u00e1evolution": 4162,
      "\u2500\u00e1master": 4163,
      "\u2500\u00e1Read": 4164,
      "ta": 4165,
      "\u2500\u00e1woman": 4166,
      "\u2500\u00e1coming": 4167,
      "\u2500\u00e1alternative": 4168,
      "\u2500\u00e1cry": 4169,
      "\u2500\u00e1specifically": 4170,
      "ION": 4171,
      "\u2500\u00e1assum": 4172,
      "\u2500\u00e1Park": 4173,
      "\u2500\u00e1reality": 4174,
      "\u2500\u00e1ord": 4175,
      "hab": 4176,
      "\u2500\u00e1picture": 4177,
      "\u2500\u00e1False": 4178,
      "\u2500\u00e1extrem": 4179,
      "\u2500\u00e1passed": 4180,
      "idden": 4181,
      "Is": 4182,
      "rab": 4183,
      "\u2500\u00e1Are": 4184,
      "\u2500\u00e1July": 4185,
      "\u2500\u00e1factor": 4186,
      "\u2500\u00e1choice": 4187,
      "\u2500\u00e1Soci": 4188,
      "\u2500\u00e1lat": 4189,
      "\u2500\u00e1capacity": 4190,
      "\u2500\u00e1Govern": 4191,
      "IL": 4192,
      "ashington": 4193,
      "pped": 4194,
      "\u2500\u00e1occup": 4195,
      "rief": 4196,
      "\u2500\u00e1king": 4197,
      "yd": 4198,
      "\u2500\u00e1cities": 4199,
      "ping": 4200,
      "\u2500\u00e1gir": 4201,
      "\u2500\u00e1Cur": 4202,
      "\u2500\u00e1south": 4203,
      "\u2500\u00e1intellig": 4204,
      "net": 4205,
      "\u2500\u00e1City": 4206,
      "\u2500\u00e1compar": 4207,
      "trans": 4208,
      "\u2500\u00e1Pat": 4209,
      "EL": 4210,
      "\u2500\u00e1adjust": 4211,
      "\u2500\u00e1finding": 4212,
      "\u2500\u00e1trend": 4213,
      "\u2500\u00e1contract": 4214,
      "run": 4215,
      "\u2500\u00e1phen": 4216,
      "\u2500\u00e1genetic": 4217,
      "\u2500\u00e1index": 4218,
      "\u2500\u00e1imagine": 4219,
      "\u2500\u00e1surpr": 4220,
      "ondon": 4221,
      "\u2500\u00e1Church": 4222,
      "icip": 4223,
      "craft": 4224,
      "\u2500\u00e1distribution": 4225,
      "lin": 4226,
      "aur": 4227,
      "\u2500\u00e1People": 4228,
      "\u2500\u00e1Understanding": 4229,
      "\u2500\u00e1rand": 4230,
      "\u2500\u00e1gold": 4231,
      "ama": 4232,
      "\u2500\u00e1faith": 4233,
      "\u2500\u00e1topic": 4234,
      "related": 4235,
      "ename": 4236,
      "\u2500\u00e1assist": 4237,
      "\u2500\u00e1weak": 4238,
      "Let": 4239,
      "\u2500\u00e1citizens": 4240,
      "bal": 4241,
      "\u2500\u00e1died": 4242,
      "oses": 4243,
      "\u2500\u00e1societ": 4244,
      "False": 4245,
      "\u2500\u00e1Test": 4246,
      "\u2500\u00e1changed": 4247,
      "\u2500\u00e1famous": 4248,
      "\u2500\u00e1store": 4249,
      "\u2500\u00e1Don": 4250,
      "\u2500\u00e1federal": 4251,
      "\u2500\u00e1games": 4252,
      "**:": 4253,
      "norm": 4254,
      "\u2500\u00e1birds": 4255,
      "ham": 4256,
      "anging": 4257,
      ");": 4258,
      "wards": 4259,
      "mark": 4260,
      "\u2500\u00e1operations": 4261,
      "\u2500\u00e1illness": 4262,
      "\u2500\u00e1female": 4263,
      "\u2500\u00e1High": 4264,
      "board": 4265,
      "ses": 4266,
      "\u2500\u00e1President": 4267,
      "elcome": 4268,
      "tical": 4269,
      "ching": 4270,
      "\u2500\u00e1refers": 4271,
      "ias": 4272,
      "\u2500\u00e1Israel": 4273,
      "\u2500\u00e1nutri": 4274,
      "ares": 4275,
      "\u2500\u00e1resistance": 4276,
      "\u2500\u00e1actual": 4277,
      "\u2500\u00e1commonly": 4278,
      "\u2500\u00e1Cong": 4279,
      "\u2500\u00e1Journal": 4280,
      "\u2500\u00e1Chapter": 4281,
      "array": 4282,
      "\u2500\u00e1happens": 4283,
      "\u2500\u00e1commerc": 4284,
      "\u2500\u00e1easier": 4285,
      "\u2500\u00e1regions": 4286,
      "\u2500\u00e1sexual": 4287,
      "cast": 4288,
      "'.": 4289,
      "\u2500\u00e1Black": 4290,
      "\u2500\u00e1Char": 4291,
      "\u2500\u00e1requirements": 4292,
      "enty": 4293,
      "\u2500\u00e1placed": 4294,
      "\u2500\u00e1becoming": 4295,
      "\u2500\u00e1deeper": 4296,
      "orith": 4297,
      "rid": 4298,
      "\u2500\u00e1strength": 4299,
      "\u251c\u00e1\u252c\u00f1": 4300,
      "\u2500\u00e1atmosp": 4301,
      "\u2500\u00e1former": 4302,
      "rix": 4303,
      "going": 4304,
      "cember": 4305,
      "\u2500\u00e1exhib": 4306,
      "\u2500\u00e1helping": 4307,
      "\u2500\u00e1experiment": 4308,
      "\u2500\u00e1rat": 4309,
      "comm": 4310,
      "\u2500\u00e1Since": 4311,
      "xiety": 4312,
      "\u2500\u00e1presence": 4313,
      "anish": 4314,
      "\u2500\u00e1sample": 4315,
      "ructure": 4316,
      "\u2500\u00e1happen": 4317,
      "ifying": 4318,
      "\u2500\u00e1price": 4319,
      "\u2500\u00e1track": 4320,
      "zing": 4321,
      "\u2500\u00e1pregn": 4322,
      "\u2500\u00e1populations": 4323,
      "\u2500\u00e1evol": 4324,
      "\u2500\u00e1anyone": 4325,
      "do": 4326,
      "\u2500\u00e1thousands": 4327,
      "\u2500\u00e1excess": 4328,
      "\u2500\u00e1identified": 4329,
      "\u2500\u00e1feeling": 4330,
      "\u2500\u00e1formed": 4331,
      "\u2500\u00e1Che": 4332,
      "\u2500\u00e1monit": 4333,
      "\u2500\u00e1vital": 4334,
      "\u2500\u00e1starting": 4335,
      "\u2500\u00e1drugs": 4336,
      "\u2500\u00e1sem": 4337,
      "\u2500\u00e1univers": 4338,
      "\u2500\u00e1winter": 4339,
      "\u2500\u00e1changing": 4340,
      "\u2500\u00e1vary": 4341,
      "\u2500\u00e1showed": 4342,
      "\u2500\u00e1urban": 4343,
      "aign": 4344,
      "\u2500\u00e1reducing": 4345,
      "\u2500\u00e1rot": 4346,
      "\u2500\u00e1sharing": 4347,
      "\u2500\u00e1diabetes": 4348,
      "\u2500\u00e1prepar": 4349,
      "call": 4350,
      "\u2500\u00e1remove": 4351,
      "\u2500\u00e1expression": 4352,
      "\u2500\u00e1Union": 4353,
      "\u2500\u00e1fruit": 4354,
      "\u2500\u00e1defined": 4355,
      "\u2500\u00e1Mex": 4356,
      "omb": 4357,
      "\u2500\u00e1Lab": 4358,
      "\u2500\u00e1foreign": 4359,
      "\u2500\u00e1counter": 4360,
      "aters": 4361,
      "\u2500\u00e1opin": 4362,
      "\u2500\u00e1Spec": 4363,
      "\u2500\u00e1gets": 4364,
      "\u2500\u00e1East": 4365,
      "\u2500\u00e1topics": 4366,
      "\u2500\u00e1solid": 4367,
      "\u2500\u00e1label": 4368,
      "\u2500\u00e1random": 4369,
      "Sh": 4370,
      "dis": 4371,
      "\u2500\u00e1Tr": 4372,
      "\u2500\u00e1attract": 4373,
      "eline": 4374,
      "\u2500\u00e1Law": 4375,
      "\u2500\u00e1direction": 4376,
      "\u2500\u00e1unf": 4377,
      "\u2500\u00e1advanced": 4378,
      "\u2500\u00e1healthcare": 4379,
      "\u2500\u00e1eventually": 4380,
      "\u2500\u00e1tasks": 4381,
      "\u2500\u00e1mal": 4382,
      "\u2500\u00e1Vir": 4383,
      "\u2500\u00e1DNA": 4384,
      "field": 4385,
      "\u2500\u00e1letter": 4386,
      "gs": 4387,
      "\u2500\u00e1mouth": 4388,
      "\u2500\u00e1[]": 4389,
      "ache": 4390,
      "iveness": 4391,
      "\u2500\u00e1County": 4392,
      "Se": 4393,
      "etime": 4394,
      "\u2500\u00e1connected": 4395,
      "\u2500\u00e1comprehens": 4396,
      "\u2500\u00e1tox": 4397,
      "\u2500\u00e1wa": 4398,
      "gl": 4399,
      "ouncil": 4400,
      "\u2500\u00e1feelings": 4401,
      "roy": 4402,
      "\u2500\u00e1situations": 4403,
      "house": 4404,
      "\u2500\u00e1ball": 4405,
      "\u2500\u00e1plans": 4406,
      "\u2500\u00e1vill": 4407,
      "\u2500\u00e1advance": 4408,
      "semb": 4409,
      "ovember": 4410,
      "\u2500\u00e1board": 4411,
      "\u2500\u00e1filled": 4412,
      "np": 4413,
      "\u2500\u00e1Jewish": 4414,
      "\u2500\u00e1mentioned": 4415,
      "\u2500\u00e1hair": 4416,
      "\u2500\u00e1immune": 4417,
      "\u2500\u00e1stim": 4418,
      "\u2500\u00e1readers": 4419,
      "\u2500\u00e1Also": 4420,
      "\u2500\u00e1ready": 4421,
      "\u2500\u00e1resulting": 4422,
      "\u2500\u00e1pen": 4423,
      "\u2500\u00e1unc": 4424,
      "\u2500\u00e1awareness": 4425,
      "\u2500\u00e1consumption": 4426,
      "iable": 4427,
      "train": 4428,
      "\u2500\u00e1Py": 4429,
      "\u2500\u00e1partners": 4430,
      "\u2500\u00e1lessons": 4431,
      "\u2500\u00e1hop": 4432,
      "\u2500\u00e1glass": 4433,
      "orb": 4434,
      "\u2500\u00e1despite": 4435,
      "\u2500\u00e1bond": 4436,
      "lay": 4437,
      "\u2500\u00e1Washington": 4438,
      "\u2500\u00e1causing": 4439,
      "\u2500\u00e1sort": 4440,
      "ightly": 4441,
      "PA": 4442,
      "\u2500\u00e1pieces": 4443,
      "\u2500\u00e1\u2500\u00e1\u2500\u00e1\u2500\u00e1\u2500\u00e1": 4444,
      "\u2500\u00e1train": 4445,
      "\u2500\u00e1conclusion": 4446,
      "\u2500\u00e1separate": 4447,
      "\u2500\u00e1September": 4448,
      "Some": 4449,
      "\u2500\u00e1January": 4450,
      "\u2500\u00e1October": 4451,
      "hips": 4452,
      "\u2500\u00e1ign": 4453,
      "\u2500\u00e1Additionally": 4454,
      "\u2500\u00e1sac": 4455,
      "\u2500\u00e1lib": 4456,
      "cking": 4457,
      "\u2500\u00e1Conf": 4458,
      "\u2500\u00e1Bi": 4459,
      "However": 4460,
      "\u2500\u00e1blue": 4461,
      "\u2500\u00e1tele": 4462,
      "\u2500\u00e1bed": 4463,
      "\u2500\u00e1playing": 4464,
      "amental": 4465,
      "encing": 4466,
      "\u2500\u00e1thoughts": 4467,
      "\u2500\u00e1chance": 4468,
      "\u2500\u00e1Roman": 4469,
      "ether": 4470,
      "\u2500\u00e1spect": 4471,
      "\u2500\u00e1experim": 4472,
      "\u2500\u00e1dial": 4473,
      "atin": 4474,
      "\u2500\u00e1eight": 4475,
      "\u2500\u00e1technique": 4476,
      "iest": 4477,
      "\u2500\u00e1pref": 4478,
      "ped": 4479,
      "\u2500\u00e1garden": 4480,
      "\u2500\u00e1interpret": 4481,
      "rops": 4482,
      "pected": 4483,
      "\u2500\u00e1believed": 4484,
      "\u2500\u00e1approaches": 4485,
      "\u2500\u00e1experienced": 4486,
      "ube": 4487,
      "down": 4488,
      "\u2500\u00e1infl": 4489,
      "\u2500\u00e1Aut": 4490,
      "\u2500\u00e1pick": 4491,
      "\u2500\u00e1id": 4492,
      "HE": 4493,
      "\u2500\u00e1vision": 4494,
      "\u2500\u00e1increases": 4495,
      "\u2500\u00e1Def": 4496,
      "\u2500\u00e1Arch": 4497,
      "dat": 4498,
      "\u2500\u00e1Bo": 4499,
      "\u2500\u00e1hom": 4500,
      "US": 4501,
      "\u2500\u00e1gave": 4502,
      "Ad": 4503,
      "\u2500\u00e1staff": 4504,
      "\u2500\u00e1row": 4505,
      "rant": 4506,
      "\u2500\u00e1expert": 4507,
      "rick": 4508,
      "\u2500\u00e1depending": 4509,
      "\u2500\u00e1sustainable": 4510,
      "\u2500\u00e1manage": 4511,
      "ophy": 4512,
      "\u2500\u00e1medicine": 4513,
      "\u2500\u00e1error": 4514,
      "OT": 4515,
      "\u2500\u00e1baby": 4516,
      "\u2500\u00e1encourage": 4517,
      "All": 4518,
      "\u2500\u00e1+=": 4519,
      "\u2500\u00e1cultures": 4520,
      "\u2500\u00e1Germany": 4521,
      "rome": 4522,
      "\u2500\u00e1belong": 4523,
      "\u2500\u00e1compl": 4524,
      "input": 4525,
      "\u2500\u00e1divid": 4526,
      "\u2500\u00e1mission": 4527,
      "\u2500\u00e1London": 4528,
      "\u2500\u00e1presented": 4529,
      "\u2500\u00e1outcomes": 4530,
      "OS": 4531,
      "\u2500\u00e1Feb": 4532,
      "\u2500\u00e1billion": 4533,
      "\u2500\u00e1native": 4534,
      "\u2500\u00e1professor": 4535,
      "iance": 4536,
      "\u2500\u00e1observed": 4537,
      "\u2500\u00e1church": 4538,
      "\u2500\u00e1contrast": 4539,
      "\u2500\u00e1frequently": 4540,
      "\u2500\u00e1appears": 4541,
      "\u2500\u00e1cogn": 4542,
      "\u2500\u00e1relatively": 4543,
      "\u2500\u00e1Rel": 4544,
      "PS": 4545,
      "\u2500\u00e1income": 4546,
      "\u2500\u00e1classes": 4547,
      "\u2500\u00e1{}": 4548,
      "\u2500\u00e1walk": 4549,
      "raction": 4550,
      "ographic": 4551,
      "arser": 4552,
      "lor": 4553,
      "\u2500\u00e1businesses": 4554,
      "\u2500\u00e1engage": 4555,
      "\u2500\u00e1column": 4556,
      "respond": 4557,
      "\u2500\u00e1wonder": 4558,
      "\u2500\u00e1majority": 4559,
      "orch": 4560,
      "\u2500\u00e1conv": 4561,
      "\u2500\u00e1emissions": 4562,
      "\u2500\u00e1...": 4563,
      "hand": 4564,
      "fe": 4565,
      "\u2500\u00e1plays": 4566,
      "\u2500\u00e1suggests": 4567,
      "resents": 4568,
      "\u2500\u00e1truth": 4569,
      "gra": 4570,
      "\u2500\u00e1buy": 4571,
      "\u2500\u00e1discussion": 4572,
      "\u2500\u00e1helped": 4573,
      "asion": 4574,
      "\u2500\u00e1languages": 4575,
      "\u2500\u00e1Prof": 4576,
      "\u2500\u00e1files": 4577,
      "alt": 4578,
      "url": 4579,
      "rieved": 4580,
      "\u2500\u00e1onto": 4581,
      "After": 4582,
      "alle": 4583,
      "\u2500\u00e1circum": 4584,
      "\u2500\u00e1records": 4585,
      "Ph": 4586,
      "tered": 4587,
      "\u2500\u00e1advent": 4588,
      "urance": 4589,
      "Here": 4590,
      "\u2500\u00e1heavy": 4591,
      "\u2500\u00e1felt": 4592,
      "ris": 4593,
      "\u2500\u00e1reference": 4594,
      "\u2500\u00e1tissue": 4595,
      "\u2500\u00e1Thus": 4596,
      "\u2500\u00e1coord": 4597,
      "\u2500\u00e1sounds": 4598,
      "\u2500\u00e1creation": 4599,
      "cap": 4600,
      "ressive": 4601,
      "\u2500\u00ec\u2500\u00e8\u2500\u00e1\u2500\u00e1\u2500\u00e1\u2500\u00e1\u2500\u00e1\u2500\u00e1\u2500\u00e1\u2500\u00e1\u2500\u00e1\u2500\u00e1\u2500\u00e1": 4602,
      "\u2500\u00e1Bar": 4603,
      "\u2500\u00e1processing": 4604,
      "antic": 4605,
      "\u2500\u00e1ap": 4606,
      "no": 4607,
      "\u2500\u00e1office": 4608,
      "orge": 4609,
      "\u2500\u00e1transfer": 4610,
      "\u2500\u00e1internal": 4611,
      "hetic": 4612,
      "\u2500\u00e1plastic": 4613,
      "\u2500\u00e1height": 4614,
      "gypt": 4615,
      "\u2500\u00e1characteristics": 4616,
      "\u2500\u00e1Australia": 4617,
      "\u2500\u00e1Cor": 4618,
      "ygen": 4619,
      "flow": 4620,
      "abase": 4621,
      "\u2500\u00e1option": 4622,
      "\u2500\u00e1Som": 4623,
      "\u2500\u00e1format": 4624,
      "\u2500\u00e1fert": 4625,
      "\u2500\u00e1river": 4626,
      "\u2500\u00e1Environment": 4627,
      "UT": 4628,
      "\u2500\u00e1improved": 4629,
      "\u2500\u00e1Sur": 4630,
      "\u2500\u00e1reports": 4631,
      "qual": 4632,
      "cular": 4633,
      "\u2500\u00e1increasingly": 4634,
      "code": 4635,
      "\u2500\u00e1\u251c\u00f3": 4636,
      "uit": 4637,
      "level": 4638,
      "count": 4639,
      "\u2500\u00e1prefer": 4640,
      "\u2500\u00e1Western": 4641,
      "\u2500\u00e1turned": 4642,
      "\u2500\u00e1Water": 4643,
      "annel": 4644,
      "\u2500\u00e1December": 4645,
      "arning": 4646,
      "\u2500\u00e1motiv": 4647,
      "othes": 4648,
      "\u2500\u00e1France": 4649,
      "\u2500\u00e1disorder": 4650,
      "\u2500\u00e1Because": 4651,
      "\u2500\u00e1liqu": 4652,
      "\u2500\u00e1San": 4653,
      "\u2500\u00e1immediately": 4654,
      "\u2500\u00e1sav": 4655,
      "icon": 4656,
      "\u2500\u00e1alcohol": 4657,
      "\u2500\u00e1notes": 4658,
      "\u2500\u00e1ensuring": 4659,
      "\u2500\u00e1General": 4660,
      "\u2500\u00e1disorders": 4661,
      "\u2500\u00e1mist": 4662,
      "ributed": 4663,
      "\u2500\u00e1UK": 4664,
      "\u2500\u00e1engineering": 4665,
      "\u2500\u00e1muscle": 4666,
      "action": 4667,
      "\u2500\u00e1clinical": 4668,
      "\u2500\u00e1represents": 4669,
      "\u2500\u00e1classroom": 4670,
      "vision": 4671,
      "\u2500\u00e1male": 4672,
      "iced": 4673,
      "\u2500\u00e1industrial": 4674,
      "\u2500\u00e1gene": 4675,
      "rame": 4676,
      "\u2500\u00e1race": 4677,
      "\u2500\u00e1conflict": 4678,
      "\u2500\u00e1institutions": 4679,
      "ded": 4680,
      "\u2500\u00e1Sol": 4681,
      "rest": 4682,
      "\u2500\u00e1colors": 4683,
      "pat": 4684,
      "\u2500\u00e1Medic": 4685,
      "\u2500\u00e1generation": 4686,
      "https": 4687,
      "\u2500\u00e1iron": 4688,
      "\u2500\u00e1vul": 4689,
      "\u2500\u00e1algorith": 4690,
      "des": 4691,
      "\u2500\u00e1diversity": 4692,
      "\u2500\u00e1anxiety": 4693,
      "\u2500\u00e1interests": 4694,
      "\u2500\u00e1enhance": 4695,
      "\u2500\u00e1dive": 4696,
      "\u2500\u00e1participants": 4697,
      "\u2500\u00e1elif": 4698,
      "\u2500\u00e1House": 4699,
      "\u2500\u00e1Expl": 4700,
      "icense": 4701,
      "\u2500\u00e1Society": 4702,
      "\u2500\u00e1jo": 4703,
      "road": 4704,
      "ilarly": 4705,
      "\u2500\u00e1release": 4706,
      "ruary": 4707,
      "\u2500\u00e1college": 4708,
      "being": 4709,
      "\u2500\u00e1transl": 4710,
      "\u2500\u00e1homes": 4711,
      "\u2500\u00e1Data": 4712,
      "\u2500\u00e1commercial": 4713,
      "\u2500\u00e1trig": 4714,
      "plot": 4715,
      "ref": 4716,
      "ensions": 4717,
      "\u2500\u00e1metal": 4718,
      "\u2500\u00e1maintaining": 4719,
      "\u2500\u00e1antib": 4720,
      "\u2500\u00e1Di": 4721,
      "\u2500\u00e1->": 4722,
      "\u2500\u00e1approximately": 4723,
      "osystem": 4724,
      "ologists": 4725,
      "\u2500\u00e1win": 4726,
      "\u2500\u00e1introduced": 4727,
      "ING": 4728,
      "rations": 4729,
      "\u2500\u00e1Unit": 4730,
      "\u2500\u00e1Ang": 4731,
      "\u2500\u00e1party": 4732,
      "\u2500\u00e1leads": 4733,
      "\u2500\u00e1elim": 4734,
      "ails": 4735,
      "\u2500\u00e1Instead": 4736,
      "\u2500\u00e1violence": 4737,
      "\u2500\u00e1religion": 4738,
      "\u2500\u00e1challenging": 4739,
      "\u2500\u00e1facilit": 4740,
      "\u2500\u00e1remov": 4741,
      "\u251c\u00e9\u252c\u2591": 4742,
      "object": 4743,
      "\u2500\u00e1ingred": 4744,
      "\u2500\u00e1November": 4745,
      "ixt": 4746,
      "aset": 4747,
      "\u2500\u00e1consequences": 4748,
      "\u2500\u00e1vast": 4749,
      "azing": 4750,
      "\u2500\u00e1meeting": 4751,
      "\u2500\u00e1mo": 4752,
      "ishing": 4753,
      "\u2500\u00e1Egypt": 4754,
      "oding": 4755,
      "\u2500\u00e1decades": 4756,
      "\u2500\u00e1breast": 4757,
      "\u2500\u00e1Social": 4758,
      "\u2500\u00e1storage": 4759,
      "\u2500\u00e1advoc": 4760,
      "acing": 4761,
      "empl": 4762,
      "\u2500\u00e1clearly": 4763,
      "\u2500\u00e1temperatures": 4764,
      "\u2500\u00e1justice": 4765,
      "\u2500\u00e1freedom": 4766,
      "\u2500\u00e8\u2500\u00e8\u2500\u00e1\u2500\u00e1\u2500\u00e1\u2500\u00e1\u2500\u00e1\u2500\u00e1\u2500\u00e1\u2500\u00e1\u2500\u00e1\u2500\u00e1\u2500\u00e1": 4767,
      "ords": 4768,
      "icated": 4769,
      "\u2500\u00e1tour": 4770,
      "\u2500\u00e1film": 4771,
      "\u2500\u00e1court": 4772,
      "uses": 4773,
      "\u2500\u00e1pp": 4774,
      "\u2500\u00e1aren": 4775,
      "\u2500\u00e1huge": 4776,
      "\u2500\u00e1nutrition": 4777,
      "\u2500\u00e1speech": 4778,
      "\u2500\u00e1territ": 4779,
      "eding": 4780,
      "\u2500\u00e1Its": 4781,
      "\u2500\u00e1focused": 4782,
      "\u2500\u00e1insect": 4783,
      "\u2500\u00e1units": 4784,
      "\u2500\u00e1multi": 4785,
      "\u2500\u00e1practical": 4786,
      "\u2500\u00e1See": 4787,
      "\u2500\u00e1milk": 4788,
      "\u2500\u00e1buildings": 4789,
      "\u2500\u00e1Moreover": 4790,
      "\u2500\u00e1independent": 4791,
      "Imagine": 4792,
      "leg": 4793,
      "const": 4794,
      "\u2500\u00e1career": 4795,
      "LE": 4796,
      "akers": 4797,
      "\u2500\u00e1engaging": 4798,
      "\u2500\u00e1strategy": 4799,
      "icial": 4800,
      "\u2500\u00e1emotions": 4801,
      "tee": 4802,
      "\u2500\u00e1pric": 4803,
      "\u2500\u00e1assessment": 4804,
      "UR": 4805,
      "sol": 4806,
      "enth": 4807,
      "ux": 4808,
      "Another": 4809,
      "box": 4810,
      "\u2500\u00e1seek": 4811,
      "\u2500\u00e1batter": 4812,
      "ortunately": 4813,
      "\u2500\u00e1statement": 4814,
      "omas": 4815,
      "\u2500\u00e1Mat": 4816,
      "?\"": 4817,
      "cript": 4818,
      "\u2500\u00e1replace": 4819,
      "Type": 4820,
      "gin": 4821,
      "\u2500\u00e1Furthermore": 4822,
      "\u2500\u00e1Sch": 4823,
      "\u2500\u00e1excell": 4824,
      "\u2500\u00e1keeping": 4825,
      "oma": 4826,
      "\u2500\u00e1Rev": 4827,
      "Mod": 4828,
      "zer": 4829,
      "vironments": 4830,
      "\u2500\u00e1dri": 4831,
      "ibilities": 4832,
      "\u2500\u00e1creative": 4833,
      "\u2500\u00e1cycle": 4834,
      "\u2500\u00e1minor": 4835,
      "\u2500\u00e1studying": 4836,
      "\u2500\u00e1Public": 4837,
      "\u2500\u00e1treated": 4838,
      "erved": 4839,
      "\u2500\u00e1settings": 4840,
      "\u2500\u00e1Ob": 4841,
      "itage": 4842,
      "\u2500\u00e1extremely": 4843,
      "\u2500\u00e1phenomen": 4844,
      "\u2500\u00e1experts": 4845,
      "\u2500\u00e1Association": 4846,
      "shape": 4847,
      "\u2500\u00e1Av": 4848,
      "join": 4849,
      "atically": 4850,
      "\u2500\u00e1continues": 4851,
      "aint": 4852,
      "spec": 4853,
      "\u2500\u00e1interested": 4854,
      "\u2500\u00e1correspond": 4855,
      "\u2500\u00e1primarily": 4856,
      "\u2500\u00e1cook": 4857,
      "\u2500\u00e1conducted": 4858,
      "\u2500\u00e1depression": 4859,
      "\u2500\u00e1collabor": 4860,
      "tra": 4861,
      "ctor": 4862,
      "\u2500\u00e1pret": 4863,
      "\u2500\u00e1Pal": 4864,
      "mary": 4865,
      "\u2500\u00e1electricity": 4866,
      "\u2500\u00e1survey": 4867,
      "db": 4868,
      "\u2500\u00e1bottom": 4869,
      "\u2500\u00e1star": 4870,
      "\u2500\u00e1ju": 4871,
      "\u2500\u00e1trou": 4872,
      "\u2500\u00e1Plan": 4873,
      "\u2500\u00e1isol": 4874,
      "\u2500\u00e1hear": 4875,
      "\u2500\u00e1trib": 4876,
      "ii": 4877,
      "\u2500\u00e1campaign": 4878,
      "\u2500\u00e1wis": 4879,
      "\u2500\u00e1organic": 4880,
      "\u2500\u00e1pul": 4881,
      "\u2500\u00e1Therefore": 4882,
      "enses": 4883,
      "\u2500\u00e1flex": 4884,
      "][": 4885,
      "\u2500\u00e1Har": 4886,
      "\u2500\u00e1notice": 4887,
      "then": 4888,
      "\u2500\u00e1widely": 4889,
      "\u2500\u00e1efficiency": 4890,
      "\u2500\u00e1carried": 4891,
      "iverse": 4892,
      "\u2500\u00e1dram": 4893,
      "\u2500\u00e1prepared": 4894,
      "DA": 4895,
      "\u2500\u00e1Why": 4896,
      "\u2500\u00e1spot": 4897,
      "Why": 4898,
      "gment": 4899,
      "inn": 4900,
      "\u2500\u00e1legis": 4901,
      "\u2500\u00e1generations": 4902,
      "\u2500\u00e1sand": 4903,
      "\u2500\u00e1framew": 4904,
      "\u2500\u00e1grant": 4905,
      "poses": 4906,
      "\u2500\u00e1bud": 4907,
      "ressed": 4908,
      "\u2500\u00e1Development": 4909,
      "\u2500\u00e1Green": 4910,
      "\u2500\u00e1secret": 4911,
      "\u2500\u00e1Bra": 4912,
      "\u2500\u00e1Writ": 4913,
      "\u2500\u00e1bone": 4914,
      "rum": 4915,
      "pen": 4916,
      "result": 4917,
      "rep": 4918,
      "\u2500\u00e1highest": 4919,
      "eria": 4920,
      "\u2500\u00e1spring": 4921,
      "\u2500\u00e1synt": 4922,
      "\u2500\u00e1wall": 4923,
      "\u2500\u00e1Gra": 4924,
      "\u2500\u00e1combination": 4925,
      "\u2500\u00e1drive": 4926,
      "\u2500\u00e1pros": 4927,
      "\u2500\u00e1string": 4928,
      "\u2500\u00e1household": 4929,
      "\u2500\u00e1extract": 4930,
      "\u2500\u00e1Japanese": 4931,
      "\u2500\u00e1favorite": 4932,
      "da": 4933,
      "\u2500\u00e1AN": 4934,
      "\u2500\u00e1moved": 4935,
      "\u2500\u00e1artists": 4936,
      "\u2500\u00e1movements": 4937,
      "\u2500\u00e1invent": 4938,
      "\u2500\u00e1perspective": 4939,
      "\u2500\u00e1performed": 4940,
      "inger": 4941,
      "\u2500\u00e1familiar": 4942,
      "\u2500\u00e1thick": 4943,
      "\u2500\u00e1played": 4944,
      "\u2500\u00e1Mor": 4945,
      "lege": 4946,
      "\u2500\u00e1recommended": 4947,
      "They": 4948,
      "\u2500\u00e1conservation": 4949,
      "\u2500\u00e1Found": 4950,
      "\u2500\u00e1chronic": 4951,
      "output": 4952,
      "\u2500\u00e1operation": 4953,
      "\u2500\u00e1UN": 4954,
      "\u2500\u00e1spiritual": 4955,
      "\u2500\u00e1song": 4956,
      "\u2500\u00e1spent": 4957,
      "orial": 4958,
      "\u2500\u00e1fundamental": 4959,
      "\u2500\u00e1gather": 4960,
      "top": 4961,
      "\u2500\u00e1seven": 4962,
      "\u2500\u00e1Greek": 4963,
      "ste": 4964,
      "ologist": 4965,
      "iling": 4966,
      "\u2500\u00e1William": 4967,
      "emic": 4968,
      "\u2500\u00e1worldwide": 4969,
      "oyal": 4970,
      "\u2500\u00e1library": 4971,
      "\u2500\u00e1meant": 4972,
      "\u2500\u00e1signal": 4973,
      "\u2500\u00e1responsibility": 4974,
      "\u2500\u00e1choices": 4975,
      "\u2500\u00e1saying": 4976,
      "\u2500\u00e1beliefs": 4977,
      "\u2500\u00e1environments": 4978,
      "\u2500\u00e1fine": 4979,
      "\u2500\u00e1cultiv": 4980,
      "\u2500\u00e1volume": 4981,
      "\u2500\u00e1Retrieved": 4982,
      "\u2500\u00e1oxygen": 4983,
      "\u2500\u00e1conver": 4984,
      "reed": 4985,
      "\u2500\u00e1vulner": 4986,
      "\u2500\u00e1suppl": 4987,
      "SA": 4988,
      "\u2500\u00e1ple": 4989,
      "\u2500\u00e1adding": 4990,
      "\u2500\u00e1professionals": 4991,
      "\u2500\u00e1consult": 4992,
      "\u2500\u00e1covered": 4993,
      "\u2500\u00e1Mr": 4994,
      "\u2500\u00e1doub": 4995,
      "\u2500\u00e1Human": 4996,
      "\u2500\u00e1failure": 4997,
      "\u2500\u00e1kid": 4998,
      "\u2500\u00e1Program": 4999,
      "\u2500\u00e1properly": 5000,
      "osen": 5001,
      "\u2500\u00e1mel": 5002,
      "\u2500\u00e1poly": 5003,
      "\u2500\u00e1external": 5004,
      "process": 5005,
      "\u2500\u00e1university": 5006,
      "\u2500\u00e1remind": 5007,
      "\u2500\u00e1pal": 5008,
      "\u2500\u00e1incred": 5009,
      "\u2500\u00e1dra": 5010,
      "\u2500\u00e1syn": 5011,
      "igure": 5012,
      "\u2500\u00e1\u2500\u00e1\u2500\u00e1\u2500\u00e1\u2500\u00e1\u2500\u00e1": 5013,
      "isation": 5014,
      "\u2500\u00e1landscape": 5015,
      "sec": 5016,
      "\u2500\u00e1significance": 5017,
      "imal": 5018,
      "\u2500\u00e1served": 5019,
      "cal": 5020,
      "\u2500\u00e1embra": 5021,
      "\u2500\u00e1ST": 5022,
      "\u251c\u00f3\u2500\u00f3\u2500\u2510,": 5023,
      "\u2500\u00e1happened": 5024,
      "\u2500\u00e1Organ": 5025,
      "\u2500\u00e1arm": 5026,
      "\u2500\u00e1degrees": 5027,
      "image": 5028,
      "\u2500\u00e1impacts": 5029,
      "ocal": 5030,
      "http": 5031,
      "\u2500\u00e1articles": 5032,
      "\u2500\u00e1item": 5033,
      "\u2500\u00e1centuries": 5034,
      "\u2500\u00e1seeds": 5035,
      "oted": 5036,
      "\u2500\u00e1James": 5037,
      "\u2500\u00e1title": 5038,
      "dim": 5039,
      "\u2500\u00e1lesson": 5040,
      "roph": 5041,
      "\u2500\u00e1advice": 5042,
      "rence": 5043,
      "\u2500\u00e1cast": 5044,
      "\u2500\u00e1examine": 5045,
      "\u2500\u00e1dogs": 5046,
      "\u2500\u00e1seed": 5047,
      "\u2500\u00e1Islam": 5048,
      "\u2500\u00e1plot": 5049,
      "oke": 5050,
      "\u2500\u00e1generate": 5051,
      "oper": 5052,
      "rating": 5053,
      "\u2500\u00e1carefully": 5054,
      "ingly": 5055,
      "En": 5056,
      "\u2500\u00e1papers": 5057,
      "dent": 5058,
      "\u2500\u00e1samples": 5059,
      "\u2500\u00e1upper": 5060,
      "\u2500\u00e1Congress": 5061,
      "\u2500\u00e1origin": 5062,
      "rics": 5063,
      "\u2500\u00e1Using": 5064,
      "\u2500\u00e1ocean": 5065,
      "\u2500\u00e1agg": 5066,
      "\u2500\u00e1highlight": 5067,
      "\u2500\u00e1Mark": 5068,
      "\u2500\u00e1smart": 5069,
      "\u2500\u00e1mere": 5070,
      "\u2500\u00e1Spanish": 5071,
      "label": 5072,
      "\u2500\u00e1letters": 5073,
      "icians": 5074,
      "\u2500\u00e1round": 5075,
      "\u2500\u00e1closely": 5076,
      "\u2500\u00e1component": 5077,
      "\u2500\u00e1screen": 5078,
      "\u2500\u00e1array": 5079,
      "Ind": 5080,
      "\u2500\u00e1Every": 5081,
      "apping": 5082,
      "\u2500\u00e1mer": 5083,
      "\u2500\u00e1satis": 5084,
      "\u2500\u00e1containing": 5085,
      "otal": 5086,
      "\u2500\u00e1finally": 5087,
      "\u2500\u00e1volunt": 5088,
      "\u2500\u00e1roll": 5089,
      "\u2500\u00e1figures": 5090,
      "\u2500\u00e1send": 5091,
      "\u2500\u00e1wealth": 5092,
      "\u2500\u00e1Internet": 5093,
      "\u2500\u00e1previously": 5094,
      "ulf": 5095,
      "\u2500\u00e1February": 5096,
      "\u2500\u00e1Air": 5097,
      "\u2500\u00e1Food": 5098,
      "\u2500\u00e1Mary": 5099,
      "za": 5100,
      "\u2500\u00e1potentially": 5101,
      "\u2500\u00e1impl": 5102,
      "\u2500\u00e1rul": 5103,
      "othing": 5104,
      "anch": 5105,
      "\u2500\u00e1ecosystem": 5106,
      "())": 5107,
      "\u2500\u00e1adop": 5108,
      "\u2500\u00e1amounts": 5109,
      "lines": 5110,
      "'),": 5111,
      "\u2500\u00e1Off": 5112,
      "last": 5113,
      "().": 5114,
      "\u2500\u00e1networks": 5115,
      "\u2500\u00e1inflamm": 5116,
      "\u2500\u00e1looks": 5117,
      "\u2500\u00e1released": 5118,
      "\u2500\u00e1Sub": 5119,
      "anges": 5120,
      "Cont": 5121,
      "\u2500\u00e1err": 5122,
      "map": 5123,
      "\u2500\u00e1referred": 5124,
      "\u2500\u00e1describe": 5125,
      "essage": 5126,
      "Data": 5127,
      "\u2500\u00e1injury": 5128,
      "\u2500\u00e1flood": 5129,
      "rich": 5130,
      "unk": 5131,
      "\u2500\u00e1purposes": 5132,
      "Col": 5133,
      "((": 5134,
      "RI": 5135,
      "\u2500\u00e1vegetables": 5136,
      "CC": 5137,
      "active": 5138,
      "\u2500\u00e1owners": 5139,
      "ball": 5140,
      "\u2500\u00e1https": 5141,
      "\u2500\u00e1destroy": 5142,
      "\u2500\u00e1confirm": 5143,
      "pathy": 5144,
      "\u2500\u00e1La": 5145,
      "\u2500\u00e1aid": 5146,
      "\u2500\u00e1nuclear": 5147,
      "\u2500\u00e1Both": 5148,
      "\u2500\u00e1Mal": 5149,
      "\u2500\u00e1linked": 5150,
      "\u2500\u00e1Lord": 5151,
      "\u2500\u00e1jobs": 5152,
      "\u2500\u00e1Vol": 5153,
      "\u2500\u00e1pu": 5154,
      "\u2500\u00e1seeking": 5155,
      "eli": 5156,
      "ollow": 5157,
      "\u2500\u00e1pages": 5158,
      "\u2500\u00e1Mich": 5159,
      "estion": 5160,
      "\u2500\u00e1accurate": 5161,
      "write": 5162,
      "\u2500\u00e1advantage": 5163,
      "wargs": 5164,
      "\u2500\u00e1president": 5165,
      "\u2500\u00e1ourselves": 5166,
      "rm": 5167,
      "\u2500\u00e1god": 5168,
      "\u2500\u00e1tum": 5169,
      "\u2500\u00e1leaving": 5170,
      "\u2500\u00e1radio": 5171,
      "stream": 5172,
      "\u2500\u00e1straight": 5173,
      "\u2500\u00e1traditions": 5174,
      "\u2500\u00e1convent": 5175,
      "\u2500\u00e1meat": 5176,
      "\u2500\u00e1dangerous": 5177,
      "\u2500\u00e1removed": 5178,
      "\u2500\u00e1surgery": 5179,
      "nic": 5180,
      "\u2500\u00e1capable": 5181,
      "\u2500\u00e1battle": 5182,
      "\u2500\u00e1estimated": 5183,
      "\u2500\u00e1formation": 5184,
      "\u2500\u00e1ongoing": 5185,
      "\u2500\u00e1credit": 5186,
      "ida": 5187,
      "\u2500\u00e1promoting": 5188,
      "\u2500\u00e1comment": 5189,
      "\u2500\u00e1roots": 5190,
      "\u2500\u00e1roles": 5191,
      "\u2500\u00e1explained": 5192,
      "\u2500\u00e1tail": 5193,
      "\u2500\u00e1Children": 5194,
      "That": 5195,
      "\u2500\u00e1maybe": 5196,
      "itness": 5197,
      "bi": 5198,
      "\u2500\u00e1mostly": 5199,
      "\u2500\u00e1radiation": 5200,
      "\u2500\u00e1reb": 5201,
      "\u2500\u00e1enable": 5202,
      "inations": 5203,
      "\u2500\u00e1possess": 5204,
      "\u2500\u00e1Students": 5205,
      "\u2500\u00e1pollution": 5206,
      "\u2500\u00e1sou": 5207,
      "\u2500\u00e1sets": 5208,
      ".__": 5209,
      "which": 5210,
      "inent": 5211,
      "From": 5212,
      "\u2500\u00e1relative": 5213,
      "\u2500\u00e1otherwise": 5214,
      "\u2500\u00e1apart": 5215,
      "ificial": 5216,
      "\u2500\u00e1horm": 5217,
      "\u2500\u00e1grade": 5218,
      "\u2500\u00e1subjects": 5219,
      "\u2500\u00e1push": 5220,
      "\u2500\u00e1recognize": 5221,
      "\u2500\u00e1square": 5222,
      "rapy": 5223,
      "\u2500\u00e1Sy": 5224,
      "\u2500\u00e1vess": 5225,
      "body": 5226,
      "ipped": 5227,
      "\u2500\u00e1guidelines": 5228,
      "CH": 5229,
      "No": 5230,
      "anguage": 5231,
      "\u2500\u00e1victim": 5232,
      "\u2500\u00e1neuro": 5233,
      "\u2500\u00e1charg": 5234,
      "\u2500\u00e1Ev": 5235,
      "\u2500\u00e1AD": 5236,
      "\u2500\u00e1Supp": 5237,
      "asure": 5238,
      "\u2500\u00e1phase": 5239,
      "[:": 5240,
      "\u2500\u00e1upd": 5241,
      "\u2500\u00e1College": 5242,
      "ogue": 5243,
      "ellect": 5244,
      "\u2500\u00e1revolution": 5245,
      "\u2500\u00e1eggs": 5246,
      "MS": 5247,
      "'m": 5248,
      "\u2500\u00e1rain": 5249,
      "\u2500\u00e1determined": 5250,
      "aker": 5251,
      "\u2500\u00e1tal": 5252,
      "\u2500\u00e1secure": 5253,
      "\u2500\u00e1argument": 5254,
      "\u2500\u00e1Asia": 5255,
      "aughter": 5256,
      "](": 5257,
      "\u2500\u00e1Remember": 5258,
      "\u2500\u00e1David": 5259,
      "\u2500\u00e1Phys": 5260,
      "\u2500\u00e1Republic": 5261,
      "otic": 5262,
      "\u2500\u00e1faced": 5263,
      "\u2500\u00e1atmosphere": 5264,
      "\u2500\u00e1Project": 5265,
      "\u2500\u00e1Fore": 5266,
      "\u2500\u00e1motor": 5267,
      "roc": 5268,
      "\u2500\u00e1vitamin": 5269,
      "\u2500\u00e1pun": 5270,
      "ij": 5271,
      "\u2500\u00e1Web": 5272,
      "ypes": 5273,
      "\u2500\u00e1voice": 5274,
      "ensor": 5275,
      "\u2500\u00e1combined": 5276,
      "\u2500\u00e1nor": 5277,
      "\u2500\u00e1definition": 5278,
      "\u2500\u00e1treatments": 5279,
      "\u2500\u00e1Ref": 5280,
      "arrow": 5281,
      ".;": 5282,
      "\u2500\u00e1farmers": 5283,
      "\u2500\u00e1genes": 5284,
      "\u2500\u00e1infections": 5285,
      "\u2500\u00e1Imagine": 5286,
      "uted": 5287,
      "\u2500\u00e1sports": 5288,
      "\u2500\u00e1technical": 5289,
      "\u2500\u00e1intelligence": 5290,
      "\u2500\u00e1args": 5291,
      "Equal": 5292,
      "\u2500\u00e1monitoring": 5293,
      "\u2500\u00e1Make": 5294,
      "\u2500\u00e1grand": 5295,
      "cs": 5296,
      "\u2500\u00e1Prot": 5297,
      "\u2500\u00e1circumst": 5298,
      "\u2500\u00e1Council": 5299,
      "\u2500\u00e1appreciate": 5300,
      "\u2500\u00e1earn": 5301,
      "\u2500\u00e1supported": 5302,
      "\u2500\u00e1reaction": 5303,
      "\u2500\u00e1Met": 5304,
      "faces": 5305,
      "hist": 5306,
      "\u2500\u00e1facts": 5307,
      "Pl": 5308,
      "\u2500\u00e1taught": 5309,
      "\u2500\u00e1Have": 5310,
      "\u2500\u00e1Bel": 5311,
      "\u2500\u00e1Tur": 5312,
      "\u2500\u00e1frequency": 5313,
      "\u2500\u00e1dict": 5314,
      "Many": 5315,
      "\u2500\u00e1annual": 5316,
      "\u2500\u00e1manufacture": 5317,
      "reet": 5318,
      "riage": 5319,
      "lig": 5320,
      "\u2500\u00e1worry": 5321,
      "\u2500\u00e1involving": 5322,
      "iled": 5323,
      "\u2500\u00e1periods": 5324,
      "\u2500\u00e1Alex": 5325,
      "\u2500\u00e1official": 5326,
      "rastructure": 5327,
      "\u2500\u00e1looked": 5328,
      "riculum": 5329,
      "\u2500\u00e1Life": 5330,
      "\u2500\u00e1faster": 5331,
      "\u2500\u00e1noted": 5332,
      "well": 5333,
      "\u2500\u00e1kn": 5334,
      "CT": 5335,
      "\u2500\u00e1barri": 5336,
      "\u2500\u00e1whom": 5337,
      "\u2500\u00e1Dem": 5338,
      "\u2500\u00e1collaboration": 5339,
      "\u2500\u00e1offered": 5340,
      "\u2500\u00e1knew": 5341,
      "\u2500\u00e1Cre": 5342,
      "ald": 5343,
      "\u2500\u00e1spend": 5344,
      "First": 5345,
      "zy": 5346,
      "\u2500\u00e1cognitive": 5347,
      "\u2500\u00e1talking": 5348,
      "hent": 5349,
      "pping": 5350,
      "\u2500\u00e1authority": 5351,
      "asp": 5352,
      "\u2500\u00e1hour": 5353,
      "\u2500\u00e1ultimately": 5354,
      "\u2500\u00e1nations": 5355,
      "\u2500\u00e1helpful": 5356,
      "\u2500\u00e1renew": 5357,
      "ndrome": 5358,
      "\u2500\u00e1slightly": 5359,
      "\u2500\u00e1answers": 5360,
      "\u2500\u00e1please": 5361,
      "\u2500\u00e1Hel": 5362,
      "\u2500\u00e1charge": 5363,
      "\u2500\u00e1hearing": 5364,
      "lo": 5365,
      "\u2500\u00e1discrim": 5366,
      "python": 5367,
      "\u2500\u00e1align": 5368,
      "\u2500\u00e1showing": 5369,
      "\u2500\u00e1George": 5370,
      "\u2500\u00e1completed": 5371,
      "\u2500\u00e1grass": 5372,
      "\u2500\u00e1Bas": 5373,
      "essor": 5374,
      "\u2500\u00e1killed": 5375,
      "\u2500\u00e1scholars": 5376,
      "\u2500\u00e1lung": 5377,
      "\u2500\u00e1Island": 5378,
      "\u2500\u00e1mit": 5379,
      "\u2500\u00e1hit": 5380,
      "icks": 5381,
      "\u2500\u00e1ideal": 5382,
      "\u2500\u00e1tiny": 5383,
      "isher": 5384,
      "uilding": 5385,
      "\u2500\u00e1consid": 5386,
      "\u2500\u00e1existence": 5387,
      "\u2500\u00e1reached": 5388,
      "\u2500\u00e1Museum": 5389,
      "\u2500\u00e1stream": 5390,
      "\u2500\u00e1cere": 5391,
      "arp": 5392,
      "\u2500\u00e1Histor": 5393,
      "yles": 5394,
      "\u2500\u00e1Opt": 5395,
      "cell": 5396,
      "\u2500\u00e1Class": 5397,
      "****": 5398,
      "\u2500\u00e1Get": 5399,
      "ns": 5400,
      "ario": 5401,
      "iration": 5402,
      "\u2500\u00e1Port": 5403,
      "uster": 5404,
      "\u2500\u00e1substant": 5405,
      "return": 5406,
      "\u2500\u00e1Fam": 5407,
      "astern": 5408,
      "OD": 5409,
      "\u2500\u00e1description": 5410,
      "\u2500\u00e1vent": 5411,
      "\u2500\u00e1excellent": 5412,
      "\u2500\u00e1cris": 5413,
      "ycl": 5414,
      "\u251c\u00e2\u252c\u00ed": 5415,
      "\u2500\u00e1truly": 5416,
      "\u2500\u00e1perspectives": 5417,
      "\u2500\u00e1improving": 5418,
      "\u2500\u00e1Add": 5419,
      "\u2500\u00e1salt": 5420,
      "\u2500\u00e1reduction": 5421,
      "sum": 5422,
      "\u2500\u00e1smooth": 5423,
      "ossible": 5424,
      "Our": 5425,
      "pred": 5426,
      "\u2500\u00e1Set": 5427,
      "\u2500\u00e1maximum": 5428,
      "\u2500\u00e1tooth": 5429,
      "\u2500\u00e1Sun": 5430,
      "AB": 5431,
      "\u2500\u00e1island": 5432,
      "\u2500\u00e1proposed": 5433,
      "alysis": 5434,
      "lete": 5435,
      "inant": 5436,
      "\u2500\u00e1die": 5437,
      "making": 5438,
      "iant": 5439,
      "ander": 5440,
      "umber": 5441,
      "\u2500\u00e1traffic": 5442,
      "\u2500\u00e1knows": 5443,
      "\u2500\u00e1enab": 5444,
      "\u2500\u00e1Up": 5445,
      "\u2500\u00e1PhD": 5446,
      "\u2500\u00e1Budd": 5447,
      "crete": 5448,
      "According": 5449,
      "\u2500\u00e1yield": 5450,
      "\u2500\u00e1exposed": 5451,
      "\u2500\u00e1obvious": 5452,
      "\u2500\u00e1brief": 5453,
      "\u2500\u00e1kept": 5454,
      "\u2500\u00e1Paul": 5455,
      "\u2500\u00e1glob": 5456,
      "\u2500\u00e1Sam": 5457,
      "\u2500\u00e1Rober": 5458,
      "\u2500\u00e1HIV": 5459,
      "\u2500\u00e1phone": 5460,
      "\u2500\u00e1bank": 5461,
      "\u2500\u00e1candid": 5462,
      "wood": 5463,
      "\u2500\u00e1electrical": 5464,
      "\u2500\u00e1Ben": 5465,
      "\u2500\u00e1layers": 5466,
      "pass": 5467,
      "Field": 5468,
      "\u2500\u00e1particles": 5469,
      "\u2500\u00e1\u251c\u00c9": 5470,
      "\u2500\u00e1Sk": 5471,
      "normal": 5472,
      "\u2500\u00e1interview": 5473,
      "lib": 5474,
      "\u2500\u00e1Such": 5475,
      "but": 5476,
      "\u2500\u00e1Tex": 5477,
      "\u2500\u00e1chemicals": 5478,
      "\u2500\u00e1kinds": 5479,
      "long": 5480,
      "ested": 5481,
      "\u2500\u00e1solve": 5482,
      "\u2500\u00e1acknow": 5483,
      "ria": 5484,
      "\u2500\u00e1amazing": 5485,
      "\u2500\u00e1deliver": 5486,
      "\u2500\u00e1exchange": 5487,
      "ya": 5488,
      "\u2500\u00e1raised": 5489,
      "icit": 5490,
      "\u2500\u00e1parties": 5491,
      "\u2500\u00e1intended": 5492,
      "\u2500\u00e1Cath": 5493,
      "fit": 5494,
      "\u2500\u00e1Out": 5495,
      "\u2500\u00e1operating": 5496,
      "TS": 5497,
      "\u2500\u00e1Cult": 5498,
      "\u2500\u00e1sufficient": 5499,
      "\u2500\u00e1discipl": 5500,
      "\u2500\u00e1muscles": 5501,
      "\u2500\u00e1remained": 5502,
      "\u2500\u00e1goods": 5503,
      "\u2500\u00e1flowers": 5504,
      "ague": 5505,
      "\u2500\u00e1offering": 5506,
      "More": 5507,
      "\u2500\u00e1certainly": 5508,
      "\u2500\u00e1Mount": 5509,
      "\u2500\u00e1drawing": 5510,
      "\u2500\u00e1coal": 5511,
      "\u2500\u00e1firm": 5512,
      "\u2500\u00e1sche": 5513,
      "\u2500\u00e1Arab": 5514,
      "ago": 5515,
      "\u2500\u00e1List": 5516,
      "\u2500\u00e1ban": 5517,
      "json": 5518,
      "Have": 5519,
      "\u2500\u00e1Government": 5520,
      "\u2500\u00e1indicate": 5521,
      "\u2500\u00e1motion": 5522,
      "oughly": 5523,
      "coming": 5524,
      "\u2500\u00e1immig": 5525,
      "gi": 5526,
      "\u2500\u00e1subsequ": 5527,
      "step": 5528,
      "New": 5529,
      "\u2500\u00e1computers": 5530,
      "nes": 5531,
      "\u2500\u00e1extreme": 5532,
      "\u2500\u00e1regional": 5533,
      "\u2500\u00e1selected": 5534,
      "\u2500\u00e1themes": 5535,
      "\u2500\u00e1governments": 5536,
      "\u2500\u00e1marg": 5537,
      "\u2500\u00e1Service": 5538,
      "stract": 5539,
      "\u2500\u00e1raw": 5540,
      "ras": 5541,
      "\u2500\u00e1views": 5542,
      "\u2500\u00e1regul": 5543,
      "win": 5544,
      "\u2500\u00e1Keep": 5545,
      "tenance": 5546,
      "\u2500\u00e1affects": 5547,
      "\u2500\u00e1\u251c\u00f3\u2500\u00f3\u252c\u00aa": 5548,
      "\u2500\u00e1\u251c\u00e2": 5549,
      "\u2500\u00e1Middle": 5550,
      "eer": 5551,
      "\u2500\u00e1depends": 5552,
      "\u2500\u00e1liquid": 5553,
      "\u2500\u00e1sett": 5554,
      "arsh": 5555,
      "\u2500\u00e1Ser": 5556,
      "\u2500\u00e1hyper": 5557,
      "\u2500\u00e1follows": 5558,
      "ville": 5559,
      "clusive": 5560,
      "\u2500\u00e1double": 5561,
      "\u2500\u00e1flat": 5562,
      "\u2500\u00e1Jews": 5563,
      "icious": 5564,
      "\u2500\u00e1Rich": 5565,
      "inding": 5566,
      "\u2500\u00e1closer": 5567,
      "ny": 5568,
      "\u2500\u00e1youth": 5569,
      "'],": 5570,
      "\u2500\u00e1resist": 5571,
      "ado": 5572,
      "\u2500\u00e1Central": 5573,
      "\u2500\u00e1fruits": 5574,
      "\u2500\u00e1ship": 5575,
      "DF": 5576,
      "cers": 5577,
      "\u2500\u00e1regularly": 5578,
      "Key": 5579,
      "\u2500\u00e1funding": 5580,
      "aturally": 5581,
      "\u2500\u00e1dro": 5582,
      "---": 5583,
      "\u2500\u00e1nutrients": 5584,
      "itors": 5585,
      "(),": 5586,
      "\u2500\u00e1happy": 5587,
      "what": 5588,
      "\u2500\u00e1appoint": 5589,
      "\u2500\u00e1conclud": 5590,
      "ictionary": 5591,
      "....": 5592,
      "\u2500\u00e1creates": 5593,
      "\u2500\u00e1internet": 5594,
      "\u2500\u00e1edge": 5595,
      "\u2500\u00e1frag": 5596,
      "cest": 5597,
      "\u2500\u00e1returned": 5598,
      "params": 5599,
      "\u2500\u00e1spaces": 5600,
      "\u2500\u00e1fort": 5601,
      "conomic": 5602,
      "\u2500\u00e1wasn": 5603,
      "\u2500\u00e1texts": 5604,
      "\u2500\u00e1handle": 5605,
      "group": 5606,
      "\u2500\u00e1thin": 5607,
      "\u2500\u00e1tips": 5608,
      "\u2500\u00e1Pract": 5609,
      "\u2500\u00e1discovery": 5610,
      "\u2500\u00e1mort": 5611,
      "rows": 5612,
      "\u2500\u00e1suggested": 5613,
      "\u2500\u00e1fab": 5614,
      "\u2500\u00e1bird": 5615,
      "\u2500\u00e1rein": 5616,
      "\u2500\u00e1asking": 5617,
      "\u2500\u00e1cert": 5618,
      "\u2500\u00e1kill": 5619,
      "\u2500\u00e1Court": 5620,
      "roid": 5621,
      "\u2500\u00e1IN": 5622,
      "stood": 5623,
      "acific": 5624,
      "\u2500\u00e1hospital": 5625,
      "\u2500\u00e1nerv": 5626,
      "while": 5627,
      "CE": 5628,
      "den": 5629,
      "\u2500\u00e1mainly": 5630,
      "\u2500\u00e1hidden": 5631,
      "\u2500\u00e1informed": 5632,
      "UN": 5633,
      "\u2500\u00e1begins": 5634,
      "\u2500\u00e1innovative": 5635,
      "\u2500\u00e1dedicated": 5636,
      "eless": 5637,
      "ifies": 5638,
      "\u2500\u00e1Direct": 5639,
      "band": 5640,
      "\u2500\u00e1medium": 5641,
      "\u2500\u00e1investment": 5642,
      "\u2500\u00e1procedure": 5643,
      "orking": 5644,
      "\u2500\u00e1rapidly": 5645,
      "\u2500\u00e1AI": 5646,
      "\u2500\u00e1Mexico": 5647,
      "\u2500\u00e1abuse": 5648,
      "\u2500\u00e1careful": 5649,
      "Gen": 5650,
      "\u2500\u00e1Civil": 5651,
      "ogether": 5652,
      "nam": 5653,
      "\u2500\u00e1proteins": 5654,
      "\u2500\u00e1tried": 5655,
      "\u2500\u00e1waters": 5656,
      "\u2500\u00e1forced": 5657,
      "uls": 5658,
      "\u2500\u00e1absol": 5659,
      "\u2500\u00e1documents": 5660,
      "\u2500\u00e1doll": 5661,
      "onic": 5662,
      "\u2500\u00e1Learning": 5663,
      "\u2500\u00e1\u251c\u00c4": 5664,
      "\u2500\u00e1Second": 5665,
      "ounced": 5666,
      "parent": 5667,
      "\u2500\u00e1disapp": 5668,
      "othe": 5669,
      "\u2500\u00e1storm": 5670,
      "\u2500\u00e1Latin": 5671,
      "plicated": 5672,
      "wid": 5673,
      "ears": 5674,
      "\u2500\u00e1clim": 5675,
      "\u2500\u00e1diagnosis": 5676,
      "\u2500\u00e1southern": 5677,
      "\u2500\u00e1toxic": 5678,
      "\u2500\u00e1Britain": 5679,
      "valid": 5680,
      "\u2500\u00e1bright": 5681,
      "\u2500\u00e1supporting": 5682,
      "\u2500\u00e1White": 5683,
      "\u2500\u00e1Hen": 5684,
      "\u2500\u00e1Att": 5685,
      "\u2500\u00e1moist": 5686,
      "\u2500\u00e1circumstances": 5687,
      "\u2500\u00e1client": 5688,
      "\u2500\u00e1fluid": 5689,
      "weight": 5690,
      "\u2500\u00e1occurred": 5691,
      "\u2500\u00e1stone": 5692,
      "\u2500\u00e1behaviors": 5693,
      "\u2500\u00e1leadership": 5694,
      "\u2500\u00e1procedures": 5695,
      "post": 5696,
      "\u2500\u00e1prepare": 5697,
      "\u251c\u00e4\u2500\u00fa": 5698,
      "html": 5699,
      "\u2500\u00e1window": 5700,
      "aks": 5701,
      "\u2500\u00e1leader": 5702,
      "\u2500\u00e1stars": 5703,
      "istan": 5704,
      "ifications": 5705,
      "\u2500\u00e1foundation": 5706,
      "\u2500\u00e1consistent": 5707,
      "\u2500\u00e1Dist": 5708,
      "anged": 5709,
      "\u2500\u00e1manner": 5710,
      "\u2500\u00e1millions": 5711,
      "\u2500\u00e1suitable": 5712,
      "\u2500\u00e1Two": 5713,
      "rust": 5714,
      "\u2500\u00e1intellect": 5715,
      "\u2500\u00e1sector": 5716,
      "\u2500\u00e1brother": 5717,
      "ilience": 5718,
      "\u2500\u00e1selection": 5719,
      "\u2500\u00e1poet": 5720,
      "\u2500\u00e1lies": 5721,
      "\u2500\u00e1Nav": 5722,
      "\u2500\u00e1mode": 5723,
      "\u2500\u00e1yellow": 5724,
      "free": 5725,
      "\u2500\u00e1employees": 5726,
      "\u2500\u00e1pictures": 5727,
      "\u2500\u00e1!": 5728,
      "\u2500\u00e1station": 5729,
      "\u2500\u00e1infrastructure": 5730,
      "\u2500\u00e1Muslim": 5731,
      "\u2500\u00e1loved": 5732,
      "\u2500\u00e1Mac": 5733,
      "instance": 5734,
      "doc": 5735,
      "\u2500\u00e1accompl": 5736,
      "api": 5737,
      "\u2500\u00e1morning": 5738,
      "\u2500\u00e1Net": 5739,
      "\u2500\u00e1pretty": 5740,
      "\u2500\u00e1era": 5741,
      "herent": 5742,
      "\u2500\u00e1NAS": 5743,
      "\u2500\u00e1Space": 5744,
      "dden": 5745,
      "sk": 5746,
      "\u2500\u00e1domestic": 5747,
      "\u2500\u00e1biological": 5748,
      "\u2500\u00e1ingredients": 5749,
      "\u2500\u00e1underlying": 5750,
      "rec": 5751,
      "\u2500\u00e1explan": 5752,
      "\u2500\u00e1skill": 5753,
      "\u2500\u00e1decide": 5754,
      "atever": 5755,
      "\u2500\u00e1vehicle": 5756,
      "\u2500\u00e1join": 5757,
      "\u2500\u00e1match": 5758,
      "\u2500\u00e1interactions": 5759,
      "\u2500\u00e1bow": 5760,
      "\u2500\u00e1northern": 5761,
      "yp": 5762,
      "\u2500\u00e1Old": 5763,
      "\u2500\u00e1formal": 5764,
      "method": 5765,
      "\u2500\u00e1du": 5766,
      "\u2500\u00e1settle": 5767,
      "\u2500\u00e1drop": 5768,
      "\u2500\u00e1instrument": 5769,
      "\u2500\u00e1prices": 5770,
      "\u2500\u00e1collected": 5771,
      "\u2500\u00e1thor": 5772,
      "urity": 5773,
      "\u2500\u00e1pray": 5774,
      "HO": 5775,
      "bed": 5776,
      "\u2500\u00e1wear": 5777,
      "\u2500\u00e1Texas": 5778,
      "lick": 5779,
      "\u2500\u00e1walls": 5780,
      "ools": 5781,
      "\u2500\u00e1obst": 5782,
      "\u2500\u00e1guidance": 5783,
      "\u2500\u00e1Cam": 5784,
      "\u2500\u00e1instruction": 5785,
      "\u2500\u00e1Post": 5786,
      "osite": 5787,
      "Although": 5788,
      "\u2500\u00e1elev": 5789,
      "\u2500\u00e1delve": 5790,
      "\u2500\u00e1neighb": 5791,
      "ician": 5792,
      "\u2500\u00e1wet": 5793,
      "\u2500\u00e1harmful": 5794,
      "\u2500\u00e1persist": 5795,
      "\u2500\u00e1appearance": 5796,
      "\u2500\u00e1recorded": 5797,
      "\u2500\u00e1virtual": 5798,
      "berg": 5799,
      "\u2500\u00e1oral": 5800,
      "verty": 5801,
      "gal": 5802,
      "\u2500\u00e1click": 5803,
      "\u2500\u00e1Technology": 5804,
      "filename": 5805,
      "\u2500\u00e1snow": 5806,
      "\u2500\u00e1haz": 5807,
      "\u2500\u00e1corpor": 5808,
      "\u2500\u00e1poverty": 5809,
      "IR": 5810,
      "\u2500\u00e1variable": 5811,
      "exp": 5812,
      "rolog": 5813,
      "\u2500\u00e1sudden": 5814,
      "\u2500\u00e1extent": 5815,
      "\u2500\u00e1Je": 5816,
      "\u2500\u00e1database": 5817,
      "rian": 5818,
      "IG": 5819,
      "Name": 5820,
      "Us": 5821,
      "\u2500\u00e1remark": 5822,
      "\u2500\u00e1links": 5823,
      "nel": 5824,
      "la": 5825,
      "CS": 5826,
      "\u2500\u00e1Management": 5827,
      "\u2500\u00e1driving": 5828,
      "\u2500\u00e1Inc": 5829,
      "wer": 5830,
      "mas": 5831,
      "\u2500\u00e1fostering": 5832,
      "\u2500\u00e1Que": 5833,
      "\u2500\u00e1facilities": 5834,
      "ups": 5835,
      "\u2500\u00e1courses": 5836,
      "\u2500\u00e1Google": 5837,
      "\u2500\u00e1resol": 5838,
      "\u2500\u00e1Another": 5839,
      "\u2500\u00e1foss": 5840,
      "\u2500\u00e1('": 5841,
      "\u2500\u00e1moral": 5842,
      "\u2500\u00e1Design": 5843,
      "ancer": 5844,
      "\u2500\u00e1drinking": 5845,
      "\u2500\u00e1west": 5846,
      "\u2500\u00e1wait": 5847,
      "assertEqual": 5848,
      "\u2500\u00e1discussed": 5849,
      "\u2500\u00e1feedback": 5850,
      "\u2500\u00e1emergency": 5851,
      "uing": 5852,
      "rates": 5853,
      "omic": 5854,
      "\u2500\u00e1tro": 5855,
      "\u2500\u00e1depth": 5856,
      "\u2500\u00e1sensitive": 5857,
      "\u2500\u00e1strengthen": 5858,
      "\u2500\u00e1amb": 5859,
      "\u2500\u00e1serves": 5860,
      "\u2500\u00e1detailed": 5861,
      "\u2500\u00e1blog": 5862,
      "\u2500\u00e1Mart": 5863,
      "\u2500\u00e1entirely": 5864,
      "\u2500\u00e1communicate": 5865,
      "\u2500\u00e1filter": 5866,
      "iform": 5867,
      "De": 5868,
      "\u2500\u00e1minimum": 5869,
      "\u2500\u00e1Miss": 5870,
      "\u2500\u00e1cutting": 5871,
      "\u2500\u00e1listen": 5872,
      "\u2500\u00e1presc": 5873,
      "\u2500\u00e1Thomas": 5874,
      "check": 5875,
      "\u2500\u00e1fill": 5876,
      "\u2500\u00e1Stand": 5877,
      "\u2500\u00e1Like": 5878,
      "\u2500\u00e1define": 5879,
      "\u2500\u00e1struggle": 5880,
      "Des": 5881,
      "\u2500\u00e1sides": 5882,
      "\u2500\u00e1Inf": 5883,
      "Not": 5884,
      "\u2500\u00e1Time": 5885,
      "\u2500\u00e1institution": 5886,
      "\u2500\u00e1introduction": 5887,
      "\u2500\u00e1recovery": 5888,
      "osa": 5889,
      "\u2500\u00e1lots": 5890,
      "\u2500\u00e1chain": 5891,
      "\u2500\u00e1Sal": 5892,
      "\u2500\u00e1examining": 5893,
      "\u2500\u00e1messages": 5894,
      "\u2500\u00e1touch": 5895,
      "\u2500\u00e1sen": 5896,
      "\u2500\u00e1Bible": 5897,
      "\u2500\u00e1agricultural": 5898,
      "\u2500\u00e1Br": 5899,
      "\u2500\u00e1shel": 5900,
      "\u2500\u00e1girls": 5901,
      "\u2500\u00e1perman": 5902,
      "version": 5903,
      "scale": 5904,
      "\u2500\u00e1Python": 5905,
      "cel": 5906,
      "that": 5907,
      "kes": 5908,
      "\u2500\u00e1starts": 5909,
      "arant": 5910,
      "\u2500\u00e1shif": 5911,
      "\u2500\u00e1claims": 5912,
      "\u2500\u00e1hero": 5913,
      "\u2500\u00e1speaking": 5914,
      "\u2500\u00e1Jer": 5915,
      "split": 5916,
      "\u2500\u00e1Work": 5917,
      "\u2500\u00e1controlled": 5918,
      "\u2500\u00e1Energy": 5919,
      "\u2500\u00e1comprehensive": 5920,
      "Ab": 5921,
      "\u2500\u00e1innovation": 5922,
      "\u2500\u00e1typical": 5923,
      "west": 5924,
      "\u2500\u00e1Leg": 5925,
      "\u2500\u00e1attacks": 5926,
      "agon": 5927,
      "\u2500\u00e1responses": 5928,
      "\u2500\u00e1shaping": 5929,
      "\u2500\u00e1regulations": 5930,
      "string": 5931,
      "\u2500\u00e1largely": 5932,
      "\u2500\u00e1stages": 5933,
      "\u2500\u00e1enem": 5934,
      "roke": 5935,
      "\u2500\u00e1audience": 5936,
      "\u2500\u00e1addressing": 5937,
      "\u2500\u00e1Sometimes": 5938,
      "\u2500\u00e1matters": 5939,
      "\u2500\u00e1paid": 5940,
      "under": 5941,
      "utive": 5942,
      "\u2500\u00e1Bay": 5943,
      "\u2500\u00e1vaccine": 5944,
      "position": 5945,
      "\u2500\u00e1lose": 5946,
      "\u2500\u00e1rural": 5947,
      "\u2500\u00e1sell": 5948,
      "\u2500\u00e1park": 5949,
      "\u2500\u00e1Psych": 5950,
      "\u2500\u00e1grown": 5951,
      "\u2500\u00e8\u2500\u00e1\u2500\u00e1\u2500\u00e1\u2500\u00e1\u2500\u00e1\u2500\u00e1\u2500\u00e1\u2500\u00e1\u2500\u00e1\u2500\u00e1\u2500\u00e1\u2500\u00e1\u2500\u00e1\u2500\u00e1\u2500\u00e1\u2500\u00e1\u2500\u00e1\u2500\u00e1\u2500\u00e1\u2500\u00e1\u2500\u00e1\u2500\u00e1\u2500\u00e1\u2500\u00e1\u2500\u00e1\u2500\u00e1\u2500\u00e1": 5952,
      "\u2500\u00e1Kore": 5953,
      "\u2500\u00e1recognized": 5954,
      "ceived": 5955,
      "\u2500\u00e1consists": 5956,
      "create": 5957,
      "\u2500\u00e1chosen": 5958,
      "ditional": 5959,
      "\u2500\u00e1Care": 5960,
      "\u2500\u00e1exists": 5961,
      "\u2500\u00e1Medicine": 5962,
      "LA": 5963,
      "lean": 5964,
      "My": 5965,
      "\u2500\u00e1traum": 5966,
      "\u2500\u00e1Power": 5967,
      "\u2500\u00e1drink": 5968,
      "\u2500\u00e1liver": 5969,
      "\u2500\u00e1Step": 5970,
      "\u2500\u00e1mechanisms": 5971,
      "\u2500\u00e1sequence": 5972,
      "\u2500\u00e1cm": 5973,
      "IM": 5974,
      "\u2500\u00e1band": 5975,
      "\u2500\u00e1ahead": 5976,
      "ensus": 5977,
      "\u2500\u00e1restrict": 5978,
      "\u2500\u00e1Whe": 5979,
      "icing": 5980,
      "\u2500\u00e1habitat": 5981,
      "\u2500\u00e1Medical": 5982,
      "\u2500\u00e1Emp": 5983,
      "\u2500\u00e1torch": 5984,
      "\u2500\u00e1accepted": 5985,
      "\u2500\u00e1metab": 5986,
      "\u2500\u00e1intervention": 5987,
      "\u2500\u00e1wants": 5988,
      "\u2500\u00e1cars": 5989,
      "umin": 5990,
      "\u2500\u00e1Lou": 5991,
      "\u2500\u00e1trial": 5992,
      "\u2500\u00e1politics": 5993,
      "\u2500\u00e1node": 5994,
      "\u2500\u00e1agriculture": 5995,
      "\u2500\u00e1ancest": 5996,
      "\u2500\u00e1police": 5997,
      "\u2500\u00e1Rec": 5998,
      "\u2500\u00e1fro": 5999,
      "\u2500\u00e1reprodu": 6000,
      "\u2500\u00e1weap": 6001,
      "\u2500\u00e1(\"": 6002,
      "arter": 6003,
      "hi": 6004,
      "\u2500\u00e1adequ": 6005,
      "\u2500\u00e1aimed": 6006,
      "\u2500\u00e1assistance": 6007,
      "\u2500\u00e1latest": 6008,
      "\u2500\u00e1Mem": 6009,
      "\u2500\u00e1diam": 6010,
      "\u2500\u00e1prompt": 6011,
      "\u2500\u00e1Dise": 6012,
      "agers": 6013,
      "\u2500\u00e1Sen": 6014,
      "\u2500\u00e1Saf": 6015,
      "\u2500\u00e1OF": 6016,
      "\u2500\u00e1cooking": 6017,
      "\u2500\u00e1ment": 6018,
      "\u2500\u00e1interaction": 6019,
      "\u2500\u00e1crops": 6020,
      "\u2500\u00e1opening": 6021,
      "\u2500\u00e1opinion": 6022,
      "\u2500\u00e1Jud": 6023,
      "\u2500\u00e1absorb": 6024,
      "\u2500\u00e1neut": 6025,
      "\u2500\u00e1successfully": 6026,
      "anes": 6027,
      "\u2500\u00e1sin": 6028,
      "\u2500\u00e1phr": 6029,
      "\u2500\u00e1studied": 6030,
      "\u2500\u00e1variables": 6031,
      "\u2500\u00e1fiction": 6032,
      "\u2500\u00e1stret": 6033,
      "\u2500\u00e1dut": 6034,
      "\u2500\u00e1narratives": 6035,
      "ican": 6036,
      "\u2500\u00e1harv": 6037,
      "\u2500\u00e1Women": 6038,
      "\u2500\u00e1Mil": 6039,
      "\u2500\u00e1knowing": 6040,
      "\u2500\u00e1proport": 6041,
      "\u2500\u00e1Franc": 6042,
      "\u2500\u00e1nit": 6043,
      "Go": 6044,
      "\u2500\u00e1Treat": 6045,
      "\u2500\u00e1stem": 6046,
      "\u2500\u00e1Common": 6047,
      "\u2500\u00e1script": 6048,
      "\u2500\u00e1Any": 6049,
      "\u2500\u00e1budget": 6050,
      "\u2500\u00e1crisis": 6051,
      "estyle": 6052,
      "\u2500\u00e1wave": 6053,
      "\u2500\u00e1Russia": 6054,
      "oxide": 6055,
      "ava": 6056,
      "\u2500\u00e1Virgin": 6057,
      "gu": 6058,
      "\u2500\u00e1Engine": 6059,
      "expected": 6060,
      "\u2500\u00e1hundreds": 6061,
      "ester": 6062,
      "\u2500\u00e1catch": 6063,
      "\u2500\u00e1server": 6064,
      "uous": 6065,
      "\u2500\u00e1divided": 6066,
      "\u2500\u00e1Micro": 6067,
      "erving": 6068,
      "\u2500\u00e1Dec": 6069,
      "raint": 6070,
      "\u2500\u00e1indigenous": 6071,
      "\u2500\u00e1Elect": 6072,
      "\u2500\u00e1reform": 6073,
      "\u2500\u00e1adopt": 6074,
      "\u2500\u00e1couple": 6075,
      "Americ": 6076,
      "Be": 6077,
      "sis": 6078,
      "\u2500\u00e1Ber": 6079,
      "\u2500\u00e1transition": 6080,
      "\u2500\u00e1relax": 6081,
      "\u2500\u00e1entry": 6082,
      "\u2500\u00e1afford": 6083,
      "\u2500\u00e1Ir": 6084,
      "\u2500\u00e1discussions": 6085,
      "\u2500\u00e1protected": 6086,
      "conds": 6087,
      "\u2500\u00e1NASA": 6088,
      "\u2500\u00e1residents": 6089,
      "\u2500\u00e1measured": 6090,
      "rot": 6091,
      "\u2500\u00e1survival": 6092,
      "\u2500\u00e1doctors": 6093,
      "\u2500\u00e1session": 6094,
      "rat": 6095,
      "\u2500\u00e1apparent": 6096,
      "\u2500\u00e1download": 6097,
      "\u2500\u00e1accounts": 6098,
      "\u2500\u00e1naturally": 6099,
      "\u2500\u00e1calls": 6100,
      "Most": 6101,
      "\u2500\u00e1allerg": 6102,
      "\u2500\u00e1Russian": 6103,
      "\u2500\u00e1acts": 6104,
      "node": 6105,
      "List": 6106,
      "\u2500\u00e1neighbor": 6107,
      "itudes": 6108,
      "icate": 6109,
      "\u2500\u00e1vehicles": 6110,
      "host": 6111,
      "\u2500\u00e1critic": 6112,
      "\u2500\u00e1principle": 6113,
      "orous": 6114,
      "\u2500\u00e1positions": 6115,
      "\u2500\u00e1parameters": 6116,
      "\u2500\u00e1Information": 6117,
      "\u2500\u00e1suffering": 6118,
      "perty": 6119,
      "\u2500\u00e1machines": 6120,
      "Before": 6121,
      "\u2500\u00e1beauty": 6122,
      "\u2500\u00e1gar": 6123,
      "\u2500\u00e1Studies": 6124,
      "\u2500\u00e1Pacific": 6125,
      "\u2500\u00e1Atl": 6126,
      "\u2500\u00e1alt": 6127,
      "\u2500\u00e1universe": 6128,
      "racy": 6129,
      "lers": 6130,
      "\u2500\u00e1implications": 6131,
      "\u2500\u00e1stock": 6132,
      "\u2500\u00e1representation": 6133,
      "chers": 6134,
      "\u2500\u00e1hunt": 6135,
      "\u2500\u00e1af": 6136,
      "\u2500\u00e1brand": 6137,
      "\u2500\u00e1medications": 6138,
      "\u2500\u00e1walking": 6139,
      "ocratic": 6140,
      "\u2500\u00e1exploration": 6141,
      "\u2500\u00e1therm": 6142,
      "\u2500\u00e1attend": 6143,
      "\u2500\u00e1reject": 6144,
      "\u2500\u00e1resilience": 6145,
      "\u2500\u00e1shapes": 6146,
      "\u2500\u00e1waves": 6147,
      "organ": 6148,
      "iate": 6149,
      "{}": 6150,
      "\u2500\u00e1department": 6151,
      "erals": 6152,
      "\u2500\u00e1tun": 6153,
      "\u2500\u00e1nearby": 6154,
      "aud": 6155,
      "agues": 6156,
      "main": 6157,
      "\u2500\u00e1ethical": 6158,
      "\u2500\u00e1distingu": 6159,
      "\u251c\u00e2\u253c\u00e2": 6160,
      "\u2500\u00e1coff": 6161,
      "\u2500\u00e1conscious": 6162,
      "\u2500\u00e1simpl": 6163,
      "\u2500\u00e1Form": 6164,
      "\u2500\u00e1trends": 6165,
      "\u2500\u00e1astron": 6166,
      "NAME": 6167,
      "\u2500\u00e1creativity": 6168,
      "rants": 6169,
      "\u2500\u00e1maintenance": 6170,
      "\u2500\u00e1generated": 6171,
      "ael": 6172,
      "\u2500\u00e1Fe": 6173,
      "\u2500\u00e1intric": 6174,
      "pers": 6175,
      "using": 6176,
      "\u2500\u00e1boundaries": 6177,
      "\u2500\u00e1visible": 6178,
      "\u2500\u00e1Academ": 6179,
      "\u2500\u00e1Rights": 6180,
      "\u2500\u00e1Similarly": 6181,
      "\u2500\u00e1understood": 6182,
      "\u2500\u00e1san": 6183,
      "\u2500\u00e1stronger": 6184,
      "\u2500\u00e1shift": 6185,
      "\u2500\u00e1ce": 6186,
      "van": 6187,
      "IP": 6188,
      "orrow": 6189,
      "BC": 6190,
      "\u2500\u00e1cardi": 6191,
      "\u2500\u00e1wire": 6192,
      "\u2500\u00e1concerned": 6193,
      "\u2500\u00e1curriculum": 6194,
      "\u2500\u00e1broader": 6195,
      "\u2500\u00e1prevention": 6196,
      "Get": 6197,
      "\u2500\u00e1frame": 6198,
      "\u2500\u00e1wildlife": 6199,
      "\u2500\u00e1tells": 6200,
      "\u2500\u00e1immun": 6201,
      "erent": 6202,
      "\u2500\u00e1concentration": 6203,
      "\u2500\u00e1confidence": 6204,
      "float": 6205,
      "\u2500\u00e1portion": 6206,
      "\u2500\u00e1massive": 6207,
      "\u2500\u00e1Foundation": 6208,
      "cience": 6209,
      "\u2500\u00e1inner": 6210,
      "\u2500\u00e1framework": 6211,
      "olf": 6212,
      "ENT": 6213,
      "\u2500\u00e1boost": 6214,
      "ascular": 6215,
      "\u2500\u00e1producing": 6216,
      "\u2500\u00e1sick": 6217,
      "\u2500\u00e1Know": 6218,
      "\u2500\u00e1remaining": 6219,
      "\u2500\u00e1mobile": 6220,
      "\u2500\u00e1wife": 6221,
      "\u2500\u00e1kil": 6222,
      "\u2500\u00e1habits": 6223,
      "inet": 6224,
      "\u2500\u00e1Bet": 6225,
      "\u2500\u00e1Book": 6226,
      "\u2500\u00e1rig": 6227,
      "Of": 6228,
      "\u2500\u00e1officials": 6229,
      "\u2500\u00e1implementation": 6230,
      "\u2500\u00e1News": 6231,
      "\u2500\u00e1assemb": 6232,
      "\u2500\u00e1gained": 6233,
      "\u2500\u00e1Wind": 6234,
      "\u2500\u00e1substance": 6235,
      "\u2500\u00e1abilities": 6236,
      "\u2500\u00e1army": 6237,
      "\u2500\u00e1obtained": 6238,
      "\u2500\u00e1engagement": 6239,
      "\u2500\u00e1managed": 6240,
      "alian": 6241,
      "\u2500\u00e1managing": 6242,
      "\u2500\u00e1sweet": 6243,
      "\u2500\u00e1Who": 6244,
      "ums": 6245,
      "ca": 6246,
      "\u2500\u00e1signals": 6247,
      "Do": 6248,
      "\u2500\u00e1cloud": 6249,
      "\u2500\u00e1greatest": 6250,
      "\u2500\u00e1east": 6251,
      "section": 6252,
      "\u2500\u00e1desired": 6253,
      "\u2500\u00e1appeared": 6254,
      "eal": 6255,
      "\u2500\u00e1programming": 6256,
      "mic": 6257,
      "\u2500\u00e1Exper": 6258,
      "elled": 6259,
      "\u2500\u00e1narrow": 6260,
      "\u2500\u00e1switch": 6261,
      "range": 6262,
      "\u2500\u00e1Mass": 6263,
      "\u2500\u00e1noise": 6264,
      "olicy": 6265,
      "img": 6266,
      "\u2500\u00e1witness": 6267,
      "\u2500\u00e1seeing": 6268,
      "\u2500\u00e1sed": 6269,
      "annels": 6270,
      "\u2500\u00e1advis": 6271,
      "\u2500\u00e1Pers": 6272,
      "\u2500\u00e1nurs": 6273,
      "\u2500\u00e1fif": 6274,
      "pol": 6275,
      "\u2500\u00e1ath": 6276,
      "\u2500\u00e1architecture": 6277,
      "ampl": 6278,
      "DE": 6279,
      "\u2500\u00e1expensive": 6280,
      "\u2500\u00e1improvement": 6281,
      "\u2500\u00e1overl": 6282,
      "\u2500\u00e1conventional": 6283,
      "\u2500\u00e1Sov": 6284,
      "\u2500\u00e1explains": 6285,
      "\u2500\u00e1demonstrate": 6286,
      "ads": 6287,
      "\u2500\u00e1Control": 6288,
      "\u2500\u00e1floor": 6289,
      "\u2500\u00e1Army": 6290,
      "\u2500\u00e1reader": 6291,
      "oto": 6292,
      "VID": 6293,
      "\u2500\u00e1crim": 6294,
      "ansion": 6295,
      "request": 6296,
      "\u2500\u00e1Commission": 6297,
      "\u2500\u00e1designs": 6298,
      "bar": 6299,
      "\u2500\u00e1nan": 6300,
      "dev": 6301,
      "\u2500\u00e1decrease": 6302,
      "\u2500\u00e1recognition": 6303,
      "\u2500\u00e1pregnancy": 6304,
      "\u2500\u00e1experiments": 6305,
      "ishes": 6306,
      "During": 6307,
      "\u2500\u00e1fold": 6308,
      "\u2500\u00e1taste": 6309,
      "Test": 6310,
      "status": 6311,
      "iday": 6312,
      "\u2500\u00e1manip": 6313,
      "\u2500\u00e1stored": 6314,
      "\u2500\u00e1suc": 6315,
      "\u2500\u00e1impossible": 6316,
      "Qu": 6317,
      "\u2500\u00e1electronic": 6318,
      "\u2500\u00e1marked": 6319,
      "\u2500\u00e1imper": 6320,
      "aming": 6321,
      "pet": 6322,
      "acts": 6323,
      "\u2500\u00e1pure": 6324,
      "ship": 6325,
      "\u2500\u00e1tested": 6326,
      "pha": 6327,
      "asive": 6328,
      "\u2500\u00e1]": 6329,
      "\u2500\u00e1sentence": 6330,
      "\u2500\u00e1Disc": 6331,
      "\u2500\u00e1locations": 6332,
      "\u2500\u00e1soldiers": 6333,
      "\u2500\u00e1Nor": 6334,
      "ka": 6335,
      "\u2500\u00e1satell": 6336,
      "ipe": 6337,
      "bert": 6338,
      "cium": 6339,
      "Read": 6340,
      "\u2500\u00e1gun": 6341,
      "\u2500\u00e1pig": 6342,
      "\u2500\u00e1inflammation": 6343,
      "\u2500\u00e1failed": 6344,
      "\u2500\u00e1injuries": 6345,
      "\u2500\u00e1paralle": 6346,
      "values": 6347,
      "\u2500\u00e1customers": 6348,
      "\u2500\u00e1persons": 6349,
      "\u2500\u00e1manufacturing": 6350,
      "\u2500\u00e1slowly": 6351,
      "\u2500\u00e1prev": 6352,
      "Bl": 6353,
      "\u2500\u00e1brown": 6354,
      "cules": 6355,
      "\u2500\u00e1Robert": 6356,
      "ultane": 6357,
      "\u2500\u00e1rail": 6358,
      "ashion": 6359,
      "\u2500\u00e1philosophy": 6360,
      "\u2500\u00e1considering": 6361,
      "\u2500\u00e1Tim": 6362,
      "\u2500\u00eb\u2500\u00eb\u2500\u00eb\u2500\u00eb": 6363,
      "oom": 6364,
      "\u2500\u00e1unless": 6365,
      "\u2500\u00e1foster": 6366,
      "\u2500\u00e1transportation": 6367,
      "iosity": 6368,
      "\u2500\u00e1toler": 6369,
      "\u2500\u00e1closed": 6370,
      "\u2500\u00e1facing": 6371,
      "\u2500\u00e1Despite": 6372,
      "cher": 6373,
      "\u2500\u00e1Del": 6374,
      "\u2500\u00e1vs": 6375,
      "\u2500\u00e1sky": 6376,
      "rey": 6377,
      "\u2500\u00e1western": 6378,
      "\u2500\u00e1exercises": 6379,
      "\u2500\u00e1Conn": 6380,
      "\u2500\u00e1km": 6381,
      "\u2500\u00e1capture": 6382,
      "\u2500\u00e1Environmental": 6383,
      "ota": 6384,
      "\u2500\u00e1recip": 6385,
      "\u2500\u00e1Prov": 6386,
      "\u2500\u00e1horiz": 6387,
      "\u2500\u00e1instructions": 6388,
      "\u2500\u00e1everyday": 6389,
      "\u2500\u00e1participate": 6390,
      "\u2500\u00e1horse": 6391,
      "\u2500\u00e1indeed": 6392,
      "\u2500\u00e1players": 6393,
      "\u2500\u00e1fle": 6394,
      "\u2500\u00e1defic": 6395,
      "\u2500\u00e1enables": 6396,
      "\u2500\u00e1Scient": 6397,
      "\u2500\u00e1Vis": 6398,
      "\u2500\u00e1ages": 6399,
      "\u2500\u00e1Key": 6400,
      "ato": 6401,
      "\u2500\u00e1pand": 6402,
      "Once": 6403,
      "\u2500\u00e1Group": 6404,
      "\u2500\u00e1revealed": 6405,
      "\u2500\u00e1kit": 6406,
      "Me": 6407,
      "\u2500\u00e1platforms": 6408,
      "BN": 6409,
      "\u2500\u00e1prem": 6410,
      "\u2500\u00e1prison": 6411,
      "\u2500\u00e1exciting": 6412,
      "table": 6413,
      "================": 6414,
      "\u2500\u00e1agreement": 6415,
      "\u2500\u00e1artificial": 6416,
      "\u2500\u00e1therap": 6417,
      "\u2500\u00e1Course": 6418,
      "ocab": 6419,
      "\u2500\u00e1stick": 6420,
      "\u2500\u00e1cos": 6421,
      "\u2500\u00e1Good": 6422,
      "\u2500\u00e1Smith": 6423,
      "\u2500\u00e1mac": 6424,
      "ixture": 6425,
      "LO": 6426,
      "\u2500\u00e1Sea": 6427,
      "\u2500\u00e1rhy": 6428,
      "\u2500\u00e1crop": 6429,
      "otion": 6430,
      "\u2500\u00e1remote": 6431,
      "urd": 6432,
      "ifier": 6433,
      "\u2500\u00e1shop": 6434,
      "\u2500\u00e1derived": 6435,
      "\u2500\u00e1Div": 6436,
      "\u2500\u00e1dental": 6437,
      "lements": 6438,
      "\u2500\u00e1inches": 6439,
      "\u2500\u00e1Det": 6440,
      "pack": 6441,
      "\u2500\u00e1secondary": 6442,
      "\u2500\u00e1stands": 6443,
      "ML": 6444,
      "\u2500\u00e1competition": 6445,
      "ango": 6446,
      "\u2500\u00e1Nature": 6447,
      "\u2500\u00e1tit": 6448,
      "dule": 6449,
      "\u2500\u00e1fixed": 6450,
      "\u2500\u00e1pil": 6451,
      "\u2500\u00e1Ident": 6452,
      "kwargs": 6453,
      "\u2500\u00e1agreed": 6454,
      "\u2500\u00e1pair": 6455,
      "\u2500\u00e1monitor": 6456,
      "\u2500\u00e1incorporating": 6457,
      "\u2500\u00e1float": 6458,
      "\u2500\u00e1composition": 6459,
      "\u2500\u00e1rub": 6460,
      "\u2500\u00e1consumers": 6461,
      "\u2500\u00e1THE": 6462,
      "vity": 6463,
      "names": 6464,
      "open": 6465,
      "wo": 6466,
      "appy": 6467,
      "\u2500\u00e1mixed": 6468,
      "\u2500\u00e1photos": 6469,
      "\u2500\u00e1extended": 6470,
      "\u2500\u00e1heritage": 6471,
      "inity": 6472,
      "\u2500\u00e1chart": 6473,
      "umes": 6474,
      "lected": 6475,
      "\u2500\u00e1Lake": 6476,
      "App": 6477,
      "\u2500\u00e1psychological": 6478,
      "\u2500\u00e1standing": 6479,
      "\u2500\u00e1Phil": 6480,
      "\u2500\u00e1Ste": 6481,
      "\u2500\u00e1possibly": 6482,
      "\u2500\u00e1Mont": 6483,
      "\u2500\u00e1Inv": 6484,
      "\u251c\u00c9\u252c\u255b": 6485,
      "\u2500\u00e1usage": 6486,
      "ipping": 6487,
      "\u2500\u00e1Flor": 6488,
      "\u2500\u00e1syndrome": 6489,
      "\u2500\u00e1vibr": 6490,
      "?\u251c\u00f3\u2500\u00f3\u2500\u2510": 6491,
      "\u2500\u00e1arrange": 6492,
      "SE": 6493,
      "\u2500\u00e1uns": 6494,
      "\u2500\u00e1forests": 6495,
      "\u2500\u00e1plate": 6496,
      "\u2500\u00e1turns": 6497,
      "\u2500\u00e1ensures": 6498,
      "\u2500\u00e1dynamics": 6499,
      "\u2500\u00e1depict": 6500,
      "\u2500\u00e1pip": 6501,
      "Dr": 6502,
      "ada": 6503,
      "\u2500\u00e1inspired": 6504,
      "operation": 6505,
      "rc": 6506,
      "\u2500\u00e1Sec": 6507,
      "\u2500\u00e1museum": 6508,
      "esh": 6509,
      "\u2500\u00e1director": 6510,
      "\u251c\u00c9\u252c\u2591": 6511,
      "\u2500\u00e1incredible": 6512,
      "\u2500\u00e1sole": 6513,
      "\u2500\u00e1repeated": 6514,
      "\u2500\u00e1authent": 6515,
      "ourse": 6516,
      "\u2500\u00e1deaths": 6517,
      "default": 6518,
      "keys": 6519,
      "Val": 6520,
      "\u2500\u00e1passion": 6521,
      "ien": 6522,
      "\u2500\u00e1evaluation": 6523,
      "\u2500\u00e1analyze": 6524,
      "pace": 6525,
      "Sc": 6526,
      "\u2500\u00e1Fin": 6527,
      "\u2500\u00e1shell": 6528,
      "\u2500\u00e1protocol": 6529,
      "\u2500\u00e1mathematics": 6530,
      "\u2500\u00e1Study": 6531,
      "\u2500\u00e1susp": 6532,
      "\u2500\u00e1Catholic": 6533,
      "\u2500\u00e1beneficial": 6534,
      "\u2500\u00e1writer": 6535,
      "\u2500\u00e1pull": 6536,
      "client": 6537,
      "ini": 6538,
      "\u2500\u00e1examination": 6539,
      "fortunately": 6540,
      "\u2500\u00e1!=": 6541,
      "\u2500\u00e1bones": 6542,
      "\u2500\u00e1bot": 6543,
      "\u2500\u00e1intellectual": 6544,
      "\u2500\u00e1Think": 6545,
      "\u2500\u00e1literary": 6546,
      "\u2500\u00e1agencies": 6547,
      "\u2500\u00e1arms": 6548,
      "\u2500\u00e1stated": 6549,
      "\u2500\u00e1theore": 6550,
      "\u2500\u00e1achieved": 6551,
      "\u2500\u00e1unknown": 6552,
      "\u2500\u00e1Sar": 6553,
      "\u2500\u00e1organized": 6554,
      "cycl": 6555,
      "\u2500\u00e1medication": 6556,
      "\u2500\u00e1expectations": 6557,
      "\u2500\u00e1resolution": 6558,
      "\u2500\u00e1CD": 6559,
      "\u2500\u00e1village": 6560,
      "Conclusion": 6561,
      "\u2500\u00e1marine": 6562,
      "umps": 6563,
      "\u2500\u00e1accuracy": 6564,
      "UL": 6565,
      "\u2500\u00e1thread": 6566,
      "\u2500\u00e1Sum": 6567,
      "\u2500\u00e1employed": 6568,
      "\u2500\u00e1supports": 6569,
      "\u2500\u00e1whereas": 6570,
      "itivity": 6571,
      "\u2500\u00e1opened": 6572,
      "\u2500\u00e1errors": 6573,
      "ented": 6574,
      "wing": 6575,
      "imer": 6576,
      "\u2500\u00e1Creat": 6577,
      "\u2500\u00e1writers": 6578,
      "\u2500\u00e1meaningful": 6579,
      "\u2500\u00e1confident": 6580,
      "\u2500\u00e1score": 6581,
      "\u2500\u00e1adopted": 6582,
      "\u2500\u00e1limits": 6583,
      "uation": 6584,
      "\u2500\u00e1categories": 6585,
      "\u2500\u00e1Main": 6586,
      "asters": 6587,
      "\u2500\u00e1dust": 6588,
      "aser": 6589,
      "nn": 6590,
      "\u2500\u00e1recycl": 6591,
      "\u2500\u00e1deeply": 6592,
      "erated": 6593,
      "\u2500\u00e1AP": 6594,
      "\u2500\u00e1Bre": 6595,
      "\u2500\u00e1bio": 6596,
      "\u2500\u00e1Comput": 6597,
      "iat": 6598,
      "\u2500\u00e1powers": 6599,
      "\u2500\u00e1arts": 6600,
      "\u2500\u00e1describes": 6601,
      "ye": 6602,
      "\u2500\u00e1functional": 6603,
      "\u2500\u00e1arguments": 6604,
      "dered": 6605,
      "\u2500\u00e1Carol": 6606,
      "function": 6607,
      "\u2500\u00e1childhood": 6608,
      "\u2500\u00e1ethnic": 6609,
      "\u2500\u00e1represented": 6610,
      "\u2500\u00e1evaluate": 6611,
      "\u2500\u00e1arrived": 6612,
      "\u2500\u00e1demonstrated": 6613,
      "orter": 6614,
      "\u2500\u00e1tur": 6615,
      "\u2500\u00e1forget": 6616,
      "dep": 6617,
      "\u2500\u00e1har": 6618,
      "\u2500\u00e1emerging": 6619,
      "\u2500\u00e1reactions": 6620,
      "\u2500\u00e1scene": 6621,
      "\u2500\u00e1lect": 6622,
      "\u2500\u00e1comments": 6623,
      "throp": 6624,
      "ulin": 6625,
      "\u2500\u00e1manif": 6626,
      "ulating": 6627,
      "oral": 6628,
      "icking": 6629,
      "\u2500\u00e1explo": 6630,
      "arity": 6631,
      "BT": 6632,
      "\u2500\u00e1brings": 6633,
      "\u2500\u00e1conversation": 6634,
      "\u2500\u00e1abund": 6635,
      "\u2500\u00e1distributed": 6636,
      "\u2500\u00e1appreciation": 6637,
      "\u2500\u00e1realized": 6638,
      "\u2500\u00e1dynamic": 6639,
      "uh": 6640,
      "\u2500\u00e1fell": 6641,
      "\u2500\u00e1administration": 6642,
      "\u251c\u00c9\u252c\u2561": 6643,
      "\u2500\u00e1door": 6644,
      "zen": 6645,
      "\u2500\u00e1Among": 6646,
      "\u2500\u00e1Native": 6647,
      "\u2500\u00e1houses": 6648,
      "\u2500\u00e1inhab": 6649,
      "\u2500\u00e1holds": 6650,
      "\u2500\u00e1listed": 6651,
      "\u2500\u00e1suffer": 6652,
      "!\"": 6653,
      "\u2500\u00e1rely": 6654,
      "\u2500\u00e1wisdom": 6655,
      "\u2500\u00e1extensive": 6656,
      "\u2500\u00e1cart": 6657,
      "ocation": 6658,
      "urns": 6659,
      "\u2500\u00e1Charles": 6660,
      "\u2500\u00e1Henry": 6661,
      ".'": 6662,
      "},": 6663,
      "essions": 6664,
      "\u2500\u00e1Jose": 6665,
      "length": 6666,
      "hus": 6667,
      "\u2500\u00e1Wild": 6668,
      "\u2500\u00e1aqu": 6669,
      "ports": 6670,
      "osc": 6671,
      "\u2500\u00e1worse": 6672,
      "\u2500\u00e1ble": 6673,
      "iology": 6674,
      "\u2500\u00e1collective": 6675,
      "AA": 6676,
      "\u2500\u00e1behaviour": 6677,
      "\u2500\u00e1negot": 6678,
      "\u2500\u00e1grew": 6679,
      "\u2500\u00e1pump": 6680,
      "\u2500\u00e1accel": 6681,
      "\u2500\u00e1Introduction": 6682,
      "\u2500\u00e1decline": 6683,
      "\u2500\u00e1Wil": 6684,
      "\u2500\u00e1supplement": 6685,
      "\u2500\u00e1industries": 6686,
      "\u2500\u00e1diss": 6687,
      "\u2500\u00e1flight": 6688,
      "\u2500\u00e1Consider": 6689,
      "SS": 6690,
      "she": 6691,
      "item": 6692,
      "world": 6693,
      "\u2500\u00e1fewer": 6694,
      "\u2500\u00e1leaf": 6695,
      "rip": 6696,
      "\u2500\u00e1insurance": 6697,
      "\u2500\u00e1Acc": 6698,
      "\u2500\u00e1unus": 6699,
      "\u2500\u00e1transmission": 6700,
      "\u2500\u00e1infected": 6701,
      "aria": 6702,
      "\u2500\u00e1blocks": 6703,
      "\u2500\u00e1intake": 6704,
      "\u2500\u00e1healing": 6705,
      "esity": 6706,
      "obj": 6707,
      "\u2500\u00e1zero": 6708,
      "\u2500\u00e1presentation": 6709,
      "ala": 6710,
      "tage": 6711,
      "usiness": 6712,
      "color": 6713,
      "\u2500\u00e1ratio": 6714,
      "\u2500\u00e1camera": 6715,
      "\u2500\u00e1fertil": 6716,
      "\u2500\u00e1possibility": 6717,
      "\u2500\u00e1technological": 6718,
      "\u2500\u00e1alongside": 6719,
      "\u2500\u00e1chief": 6720,
      "\u2500\u00e1Company": 6721,
      "update": 6722,
      "\u2500\u00e1immediate": 6723,
      "\u2500\u00e1marriage": 6724,
      "\u2500\u00e1Ext": 6725,
      "ersonal": 6726,
      "hemical": 6727,
      "\u2500\u00e1coffee": 6728,
      "ributes": 6729,
      "ocracy": 6730,
      "\u2500\u00e1Soviet": 6731,
      "Te": 6732,
      "phone": 6733,
      "\u2500\u00e1creatures": 6734,
      "athe": 6735,
      "\u2500\u00e1matrix": 6736,
      "'d": 6737,
      "riend": 6738,
      "\u2500\u00e1normally": 6739,
      "\u2500\u00e1mountain": 6740,
      "\u2500\u00e1Ox": 6741,
      "\u2500\u00e1discrimination": 6742,
      "ena": 6743,
      "Inst": 6744,
      "\u2500\u00e1seemed": 6745,
      "irt": 6746,
      "\u2500\u00e1empathy": 6747,
      "models": 6748,
      "rons": 6749,
      "\u2500\u00e1Library": 6750,
      "pread": 6751,
      "\u2500\u00e1steel": 6752,
      "\u2500\u00e1survive": 6753,
      "\u2500\u00e1Yet": 6754,
      "\u2500\u00e1fighting": 6755,
      "\u2500\u00e1molecules": 6756,
      "\u2500\u00e1twice": 6757,
      "indu": 6758,
      "\u2500\u00e1density": 6759,
      "\u2500\u00e1gall": 6760,
      "\u2500\u00e1comfortable": 6761,
      "\u2500\u00e1Those": 6762,
      "\u2500\u00e1PC": 6763,
      "\u2500\u00e1markets": 6764,
      "\u2500\u00e1returns": 6765,
      "such": 6766,
      "\u2500\u00e1Diff": 6767,
      "gent": 6768,
      "\u2500\u00e1Review": 6769,
      "lets": 6770,
      "\u2500\u00e1desire": 6771,
      "\u2500\u00e1numpy": 6772,
      "\u2500\u00e1indicates": 6773,
      "words": 6774,
      "actions": 6775,
      "\u2500\u00e1navigate": 6776,
      "Bob": 6777,
      "how": 6778,
      "\u2500\u00e1learners": 6779,
      "\u2500\u00e1tall": 6780,
      "war": 6781,
[...]
